/**
  ******************************************************************************
  * @file    network_data_params.c
  * @author  AST Embedded Analytics Research Platform
  * @date    2025-04-12T15:23:37+0700
  * @brief   AI Tool Automatic Code Generator for Embedded NN computing
  ******************************************************************************
  * Copyright (c) 2025 STMicroelectronics.
  * All rights reserved.
  *
  * This software is licensed under terms that can be found in the LICENSE file
  * in the root directory of this software component.
  * If no LICENSE file comes with this software, it is provided AS-IS.
  ******************************************************************************
  */

#include "network_data_params.h"


/**  Activations Section  ****************************************************/
ai_handle g_network_activations_table[1 + 2] = {
  AI_HANDLE_PTR(AI_MAGIC_MARKER),
  AI_HANDLE_PTR(NULL),
  AI_HANDLE_PTR(AI_MAGIC_MARKER),
};




/**  Weights Section  ********************************************************/
AI_ALIGNED(32)
const ai_u64 s_network_weights_array_u64[127321] = {
  0xbe903801be465075U, 0xbeabb276be3a9dd5U, 0x3e5134213e96d2b0U, 0x3e7b34dbbe982aadU,
  0xbcee8ec1bce73d59U, 0x3eaf9c4dbe0eddb5U, 0xbeb08f493df946baU, 0x3d12d273bded7208U,
  0x3d14ad62be2383aaU, 0xbe931254be4295b2U, 0xbc8f68883e5bf607U, 0x3e59bc8dbe085717U,
  0x3ea8411fbebe9cfaU, 0xbddfc3073e373452U, 0xbe2bc4ca3e33ace2U, 0x3e4e84ee3e4e1710U,
  0xbd21533f3dfa1676U, 0xbe16d394be688450U, 0x3e46d380be985874U, 0x3e0eaf303e1d48cbU,
  0xbe3d36b2be3db6b0U, 0xbe2ccf40be2b4326U, 0x3dac8265bdd17c9cU, 0x3dd223353e32a0b3U,
  0x3e38abc03da01835U, 0xbea67163beb68421U, 0x3e1345663d542d52U, 0xbedb1edc3e86b7faU,
  0x3e8cd92cbf00a539U, 0x3e96e2ee3d995f95U, 0x3df6567f3ec49841U, 0xbe7c5eca3e7b5309U,
  0x3d2fd8eabeafd164U, 0xbd9690453e19ce46U, 0xbe4d6d8e3e9757eaU, 0x3e1facd43e3acc9bU,
  0xbe5368b33dcc7e20U, 0x3eabb4c0bf16b193U, 0xbe3135ef3e8edee0U, 0xbe5139e4bd8b157aU,
  0x3a2763103db74c99U, 0x3db3caea3d0b6dadU, 0xbd99bc2c3ce6062dU, 0x3ce833aebb87c069U,
  0x387c598600000000U, 0x3d238d24bc867392U, 0xbb7f9f713cae4f47U, 0x3c4ab1493d156376U,
  0xbdd3ecdabee69c92U, 0x3dcece6cbdda6fa4U, 0xbe31c40abdba2f59U, 0xbea43305be0413f4U,
  0xbe3c6323be361e11U, 0xbf12c450be9ce837U, 0xbc088b4cbdd08abbU, 0xbd11315dbc971ce3U,
  0xbb4d797dbec3d334U, 0xbd041dd63d90b1e0U, 0x3e1a7ea6bd8c468fU, 0xbe8016e13de665ceU,
  0xbe540a81be193fdfU, 0xbe9656f5be971264U, 0x3d2ff4123e080d62U, 0x3c292e143dbfef5fU,
  0xbe0e1df0bda9065eU, 0xbd73a2393d9ec618U, 0x3c537070bee32a78U, 0x3dd5157fbd5e3d47U,
  0xbc134ec5bd21b9a8U, 0x3d935b193e0f1da5U, 0xbf5af7ddbc6d54a8U, 0xbcbab034bd7f47bfU,
  0xbe6a39633dae15f0U, 0xbd8a88cdbe77a20aU, 0xbe2bd219be784151U, 0xbcbe80b53d246294U,
  0x3e02638bbd85617cU, 0x3e498f4abd594300U, 0xbe2bbff23c62e416U, 0x3d9dfb7bbd26f1f4U,
  0x3e8e9b96be7fa962U, 0xbd6308cebde3b1e5U, 0xbea0b013beb50867U, 0x3b54dbb83da4431bU,
  0x3cddec3b3d902810U, 0x3e81291d3ea4cb17U, 0x3c0e21b7bcf8cd7aU, 0x3dd1eeee3df08049U,
  0xbe8bba53be0a9881U, 0xbe0c3e213d326e01U, 0x3d540256bdacb8d3U, 0x3e6337bdbd20550eU,
  0x3d681e553e3190baU, 0x3d11c644bd8a9d03U, 0x3da663c93dc9687cU, 0xba811d623d293905U,
  0xbdc287b7be7d0575U, 0x3d6ec4863e0f08eeU, 0x3e2ab3983e2b2575U, 0xbea4116e3e66fcc9U,
  0xba69509b3e2d4c7eU, 0xbe80a4a9bd98fb92U, 0xbde2fd193e0f53cbU, 0xbd1e3f753e5bfc6bU,
  0x3cc1b26e3dc31735U, 0x3d1a5e74be167859U, 0x3d26dd49bd0a2e4fU, 0xbde952b03d67e78dU,
  0xbdda54023dcea9e4U, 0xbe6b1ae83de9cba1U, 0xbdb5c856bae43b6cU, 0x3e47eece3e5c689bU,
  0xbe03e31c3e3b2b91U, 0xbe3c1695be310cbeU, 0xbe7a6601bea2b097U, 0x3bbeb810bea85c59U,
  0xbe0d1ad73d386a20U, 0x3e5e2c6c3dc31d48U, 0xbe806f94be53efd3U, 0xbe3b7162beb3423eU,
  0x3df19f59be83fee4U, 0xbdbfe3c4bea91e43U, 0xbd9d3e16be3ba7d8U, 0x3e887cbebeaa21a6U,
  0x3c78b8343d091e98U, 0x3dbdd3953c65c6c1U, 0x3e3eda4abecb2dbbU, 0xbea1dd10bda09bf0U,
  0xbe4a27fbbeca17d4U, 0x3e442c87bd9a92bbU, 0x3d72923d3d499a58U, 0x3b0c04923e39a1b8U,
  0x3e468618be2c5901U, 0xbe70140ebeb11718U, 0x3e5cfea0bd56d95fU, 0x3d9e7833bf24d92fU,
  0x3de027053cc5e664U, 0x3db43ff6be6a4369U, 0x3e84be64bd94f521U, 0xbe3eecce3d0eb64eU,
  0xbdb1ff933e3858e0U, 0xbe303fabbebef3c8U, 0x3dc012193d80eeeaU, 0x3df21f5cbf0fe87dU,
  0x3e09c9cdbda44333U, 0x3e53ba3cbdf75d0bU, 0x3e13ea68be55528fU, 0xbe1158943d11adfaU,
  0x3dce8c043d3a853cU, 0xbe6ff2c43d1bd19dU, 0xbaddb2503e1c883fU, 0x3e06160dbedc8cbbU,
  0xbd88acdcbd9338cdU, 0xbe09e22e3c8cf187U, 0x3e4da0f23c539d2dU, 0xbe822c2dbdcc3dcdU,
  0x3db57e153e439f5eU, 0x3da0a9663d89e8f9U, 0xbdb36e553e238c99U, 0x3d24788dbea01e64U,
  0x3e04c510bdb2500eU, 0x3db9f0cb3eabda40U, 0x3e41213a3e7c89b7U, 0xbe04cce0bc23fb7aU,
  0x3e073539be2a0e1dU, 0xbe88d3dfbe26522eU, 0x3e2e006b3e4aba30U, 0x3e705d693d3f340dU,
  0xbe3822d13dd41fedU, 0xbe5b3433be1c041cU, 0xbdab0d50be6932cbU, 0x3e5351d7be2aac91U,
  0x3d8ffae4bcf715f0U, 0x3ec2e3b63e4755bcU, 0x3e3b1f10bd925839U, 0xbd2614fabcff0d84U,
  0x3e4db683bed70246U, 0xbce00b733e33a0caU, 0xbe1fa226bd8ad83cU, 0x3db3672ebdc27d43U,
  0xbdc0aab5be0a1509U, 0x3e2ca5643defd9afU, 0x3b116eff3d12b58dU, 0x3d7582883e20fe38U,
  0x3d0988f8be5dd14cU, 0x3df6a8f93eb6e49fU, 0x3d4d1cb43c94f49aU, 0x3caff8473d33b271U,
  0x3e3cb867be19dadaU, 0x3e1a6cffbe0a82e4U, 0xbe37d81a3d21d529U, 0x3baac21bbca49908U,
  0xbcfab737be1cf6adU, 0x3dacd143be8482b9U, 0x3e284d603c6dad3eU, 0xbe265e313ddca85aU,
  0xbd64fbb63d49b0ecU, 0xbe4cc370be867c76U, 0xbd3c8d31bd39d357U, 0xbde53d05bda39f74U,
  0x3e11777ebe419672U, 0xbe65c038be71c63aU, 0x3c9bd7f0bea3f4e1U, 0x3e1ebd8cbdccd554U,
  0x3c4062f43dcb0164U, 0x3dba6e41be6e48eaU, 0x3e1c7466be8bfd77U, 0xbdd52f91bf20db05U,
  0xbdf0d3463df1d08bU, 0x3ce5f51a3cd7733bU, 0xbe19520f3d9da0f6U, 0x3dc822c43d94386bU,
  0xbd18c9b03b82cd60U, 0xbe00e6e2be0cd494U, 0x3dc40ec7bd73e099U, 0x3d0e8de23dbefda8U,
  0xbe2a54dfbe5b6b16U, 0xbdf0c6afbdac6087U, 0x3e313dea3db2eeb0U, 0x3d389cbdbe37e0a1U,
  0x3e24c4723e22defeU, 0xbe2b997d3de6e561U, 0xbdc66f62be111729U, 0xbdb435633d099776U,
  0x3d7925f33d04e40aU, 0xbe550447bd5f51d8U, 0xbe2a9df33e5ce0d4U, 0xbd9c62ddbdd3e173U,
  0xbc0ea6993e102ea2U, 0x3dffb0a23dbfa6fbU, 0xbe33ed733e2c239cU, 0xbcdb5cd8bdc69175U,
  0xbb2147aa3d087417U, 0x3dfcb3c2bd2f07d3U, 0x3e099cefbd9bb68fU, 0x3cc3aa7b3e0d1651U,
  0xbe0844fd3d40f8e0U, 0xbd603ea7be207fe5U, 0xbdb8e605bc3c791eU, 0xbdd7140bbd08ce69U,
  0x3c68cd903d90c399U, 0xbd5e9244be2168c6U, 0x3e1780ccbbe05650U, 0x3d7476c1bca008fdU,
  0x3c65575d3adcbc80U, 0xbc7b8e043dd7588bU, 0xbe081144bdc59a4cU, 0xbe10af4ebb8b9cffU,
  0xbdc667c5be036242U, 0xbd6ffffdbdd0f0d6U, 0xbe1357f43dfa5c03U, 0x3dd93d653d3585cbU,
  0xbdd56c44bdfaa4e1U, 0xbe332dfebe0a6ba4U, 0xbd79971cbdeb7cdaU, 0xbc37867dbd5030ccU,
  0x3da10e683dd410deU, 0xbe3fd4173e341289U, 0xbdb9e54d3e1436feU, 0xbb922d3e3e19b532U,
  0xbd513cb0bd80304cU, 0xbe34e0a83db301ecU, 0x3e02b34abd9ad622U, 0xbe3270a0be2099dcU,
  0x3c51de973e3dddccU, 0xbb88b0cdbdc469e0U, 0xbcb6e5063e264a35U, 0xba40194abe25f856U,
  0xbd182c4b3e44b688U, 0xbe270813be3d690dU, 0x3cc6ad42bdbf322eU, 0x3dfc3160bd6bde87U,
  0xbdc916de3d9a48afU, 0x3e23581f3dfc475eU, 0x3e16937fbe2d9e9fU, 0x3c00748abd89f6bdU,
  0xbe1286d6be04c820U, 0xbe0e9555be336965U, 0xbde93e673dfad3d3U, 0xbd1e002d3c13bf67U,
  0x3de17384bda2e7baU, 0xbdfa0f47be1f581cU, 0x3d0197013d7f6ef1U, 0xbe183b813e249ba7U,
  0xbe215291bdf65eaaU, 0x3df72767bdad9415U, 0x3cdb69fa3b597447U, 0xbcf346dabdf7b076U,
  0x3d8dd0313dd35a01U, 0x3e4cf14c3e3457f8U, 0x3dbab7af3da8ddd3U, 0x3ed9ae15bdd0d024U,
  0xbe0a7d253e09adc8U, 0x3eb4a6acbe24eacdU, 0x3d48a10a3e26ad39U, 0x3b1cf4c93d8be3ddU,
  0xbe3d2dab3cd459d7U, 0xbe5002cdbde50bb0U, 0x3d7870eebd684500U, 0x3e5b3bdb3d2c59bbU,
  0x3e445036bdb0324aU, 0x3c682622bea051b3U, 0xbe531c81be68402dU, 0x3d968b3cbcef315eU,
  0xbc0ad031bedfda96U, 0x3e594c24be4a85f2U, 0xbd6f48613e10f11aU, 0xbdf6423bbe6bb2ffU,
  0x3c3eb09dbc1b5860U, 0xbe87ba95beb27178U, 0x3e4a69d3bd263501U, 0xbe15815ebeaac7f0U,
  0x3e06baaabeeb8aa2U, 0xbe5f4782bd8f43ebU, 0x3e4f0951be619f1eU, 0x3e7296e7be29babcU,
  0xbd47b7353e10bbaeU, 0x3e1647903dd3bac0U, 0xbe32800cbe23d546U, 0xbe3745b5be9bfc15U,
  0xbe86c551be569914U, 0xbe17f2443d10b6ccU, 0xbdd2ecb9bd5b0e69U, 0xbe3102453dde4965U,
  0x3e62c2aebe037faeU, 0x3d3d796e3bb30236U, 0xbc5a18903df9628cU, 0x3ba0d653be969101U,
  0xbe9cf532bec6a01aU, 0x3e3835d53def7368U, 0xbd6b7e77bdb88a75U, 0x3d4118eb3d1c3166U,
  0x3e2e49a6bd0c2374U, 0xbe9b93bdbe99d8ffU, 0x3df67038be397f2aU, 0xbd48c612bea1aeb6U,
  0x3e917488be115a99U, 0x3d1916aebe480200U, 0x3d0bed2b3ea0c9c6U, 0xbda9c9343dd6be55U,
  0x3dba29933e31a072U, 0xbe7f66d4be3d149dU, 0xbce3b5623e574231U, 0xbd2cfe94be37aff4U,
  0xbdfe4383beb4e442U, 0x3be53e31bdaf3829U, 0xbe111a8fbe4d36aeU, 0xbd8a92743e34ac20U,
  0xbb8d37d6bd8a4038U, 0xbe69d88dbe78f658U, 0xbd88c16fbd9415f5U, 0xbd11b391bee011c8U,
  0xbda1abc7be416a0aU, 0xbe3c2308bdb4011bU, 0x3d70c0ea3e45dfe5U, 0xbe466b33bde4b1e4U,
  0xbe66c0b7be235eecU, 0xbd150438be0cc9fbU, 0xbc751c473e1ea76cU, 0x3e13e47fbe3c954fU,
  0x3e28bd2bbe992e21U, 0x3d8513c03e69ffd0U, 0x3d530305bd2e4e6cU, 0xbde160f03d880b77U,
  0x3ddd9cc23dae49a4U, 0xbe6dd38dbd99ad53U, 0xbdff525c3de8925cU, 0x3e815545be44ebc0U,
  0x3e404b69bebd255dU, 0xbdd05dca3c815d5eU, 0x3e5e72e9bd933e94U, 0xbe5e8f1e3e4f1643U,
  0x3dd2baecbd8d99eaU, 0xbea723f7bebd5409U, 0xbcf73279bde0da45U, 0x3de10018bf004284U,
  0x3e366626bed5079fU, 0xbddc3fa9bb55e746U, 0xbde272363ccdb6d9U, 0xbe2efdb53dc6b247U,
  0xbd0334d93d08afc8U, 0xbf0948e2bea7f1fcU, 0x3dde6ba6bc9e4de8U, 0x3e0643cdbe7b9667U,
  0xbe1088e03b0d7c48U, 0x3d9ca3443d052965U, 0xbddb679fbdd4f1efU, 0xbe27572e3dd76c8cU,
  0xbe1a757abe2851c6U, 0xbe53793bbe583379U, 0x3ca1aea9bcb2931fU, 0xbd7c21a03b5114e1U,
  0xbdda9a42bc9b64b6U, 0x3e69eb913e2369d0U, 0xbd35c39c3c8a024fU, 0xbe314e103e68427bU,
  0xbe1f90d2be178c26U, 0x3c6f43423db3d748U, 0x3e35170b3d8c1e66U, 0x3e496ea03e65b9bdU,
  0xbe474c9b3e752f9eU, 0x3eb7da013d18ddc1U, 0xbe029cb23e1a7c45U, 0x3d5748aabdba5c5aU,
  0x3d9cf36cbe27b70cU, 0x3e86a6993eac3108U, 0xbd6912b43e18e8d4U, 0x3dcecf443ee6cf4aU,
  0x3d297bd3bae4bb22U, 0x3e5072743e264dcdU, 0x3dcc3e363dcbe605U, 0x3ddef66a3dd0f8b2U,
  0x3cf0216739d92800U, 0x3df0bd77bf2d04ceU, 0xbcf846c83e16408eU, 0x3e401de63d9a1831U,
  0xbb0baac03c9e3a12U, 0x3db5374f3d81cc79U, 0xbdd0396e3e698322U, 0xbe8470ecbda60ac2U,
  0xbe39f7b83e40996aU, 0xbefc9561bf4184f7U, 0x3e0924dfbe3be3ffU, 0x3caae9473e19b4c9U,
  0x3dfedc3d3e3e6c0cU, 0x3c4de7b2beb9fc9dU, 0xbe82119e3dc7b3eeU, 0x3ced0814be9424a3U,
  0x3d7782cebe2801faU, 0xbd3b8b14bec5518fU, 0xbe1300eabd1f5c49U, 0xbddf30b9be2a5129U,
  0xbea5a6b33e55311aU, 0xbe3de1ba3da31d0fU, 0xbe479230bedb79b6U, 0x3e03590cbecd43d3U,
  0x3e33a03a3e0c1f84U, 0x3e99a322bdd58480U, 0xbe25bbe8bf2d04beU, 0xbf112a09be7a1a35U,
  0x3e6a47aebec3a06dU, 0xbe54d16a3d184483U, 0xbca15879bd6faba7U, 0xbd2d36f83e21def4U,
  0x3dc79bc83e3099bcU, 0xbe0922abbe72b66bU, 0x3df99125bd207de8U, 0xbdd9cbbe3e230c9cU,
  0xbe9b4a2d3e3aaafaU, 0xbe54cb84bd268c14U, 0x3d1ce44bbe352d69U, 0xbda16ed0bde24068U,
  0xbe2d0b87bdd05a51U, 0xbcf27ca93dbd4aa7U, 0xbe45ac79be7d218cU, 0xbcf58eb3bda4401aU,
  0x3def9ec63e9f7eafU, 0xbdc5a079bd958ed5U, 0x3cbd6be03de779bfU, 0x3e1472eb3cfbc59bU,
  0x3c33ca94bdb17729U, 0x3e54c4cb3d8b45b7U, 0x3e03e2b63bb67716U, 0x3d0d3dc53d86ca93U,
  0x3e0b9731be374d88U, 0xbe4e866ebd487f15U, 0xbe951043bea94965U, 0x3e3cdd023d014a6cU,
  0xbe9395bf3e1a1c60U, 0x3e2507ab3ddf0021U, 0xbe4af916be1eb686U, 0xbda0b6d0bc4afadcU,
  0xbe3afdc7be0a7a3dU, 0x3dcf5f163dc73726U, 0x3dbf5ecc3cddea69U, 0x3dbbc0c5bd8b6771U,
  0xbd9c300bbc2b5900U, 0xbe492404bea94691U, 0xbdfd3e023df44ec1U, 0xbdca0ecd3e106616U,
  0xbe29a177bca4aadeU, 0x3e2c0c1e3dd96317U, 0xbd4d2772bcfe03b7U, 0xbdbd2abd3e09b078U,
  0xbe3621403deb603cU, 0x3de69430bddaf6d8U, 0x3d8b54663c66dbe8U, 0xbdc0c3163e8b9585U,
  0x3e2764d53e3fd159U, 0x3d9e223a3d6b379cU, 0xbe608568bd5cbdd8U, 0x3e86ec59bcf7cac1U,
  0x3e1edd7e3d807824U, 0xbdbdc825be009e36U, 0x3e2d2fa7be6ee027U, 0xbeb965b73e50a13cU,
  0x3e27f1aebe9f2fe6U, 0x3e2f2cfbbda8376fU, 0x3dcee0113e2f11eaU, 0x3e31488e3de0cc8aU,
  0x3e3f6485be3a28ccU, 0x3dde1a993cef653dU, 0x3d4597bfbdbfd641U, 0xbe5fb4f03e30d088U,
  0x3d131e76be81b2ebU, 0x3c8ee78dbda426cfU, 0x3e4b917b3e16ceaaU, 0x3db702debd82b302U,
  0x3cb8f3ae3d2b380cU, 0x3dae1fbc3d8db18fU, 0x3da590023cfbc873U, 0x3d506fc0beacbfd0U,
  0xbe35ab15bd82fd5cU, 0xbdd9cf36bd84da6bU, 0x3e8defcbba9a2041U, 0x3c1cf3f43aa69cd2U,
  0xbd62d66f3e224ba6U, 0x3caa50b33e0e1b38U, 0xbe31eb5fbbd6285aU, 0x3e4b0e98bef23d05U,
  0xbd44ed4cbdd73252U, 0xbcf39f3abd1b82b1U, 0x3e38d55bbeae7753U, 0xbd994328be036fa2U,
  0x3e277f84be31be98U, 0x3d972c32bd9f72aeU, 0xbe249612be24947aU, 0x3d8b6528bf393154U,
  0x3b8514e23d9e2000U, 0x3d176e7dbd878eb5U, 0x3de3148bbdc079b9U, 0x3d04932f3b809360U,
  0xbcdb8bc73d518998U, 0xbd0f588a3e4178eaU, 0xbdad5fa73deb4020U, 0xbd917c53bdb66730U,
  0x3e122eeebd1f7fc1U, 0x3d53e9bbbded83feU, 0xbe16ae563e0fbc55U, 0xbe37eb93bde01d2bU,
  0xbd1fcfd43e1b2e58U, 0xbd3e1fa3be2ac05eU, 0x3d09dd003d886f7cU, 0xbe08df3dbdff1174U,
  0x3de104c43db424fcU, 0x3e083b833d741e8bU, 0xbe309957bde45766U, 0x3e1c3db6be2e47abU,
  0xbdb44b9a3e155fa2U, 0xbe21cb483e0156d0U, 0xbdcdecaebdbbd87dU, 0x3db6a8743be244caU,
  0x3bbe90e0be0c668bU, 0x3e09bf6dbdec4ddfU, 0xbde45aa8bcf44482U, 0xbe2e4386be0df62aU,
  0x3c59a95a3dc8820cU, 0x3b2b929dba217400U, 0xbdda5f9dbdc888c2U, 0x3c6c7e05be09e6e1U,
  0xbe0e2bf03cd0d416U, 0xbe3a0e05bd89253eU, 0x3d6ff7d9bd3f009eU, 0xbe060b9b3d18f17cU,
  0x3c896f3b3e222678U, 0xbde22812bd967df8U, 0x3d8e0564be218e0eU, 0x3ddbd5e03df828c1U,
  0xbd9807e03d8bca1eU, 0x3e95d58c3dd51ec3U, 0x3e7854563e45a2caU, 0x3d6158e9be7c3476U,
  0xbe8532afbe31dc55U, 0xbdbe5663be8178eeU, 0x3ad875d0bdc9c2deU, 0xbd2aaeb13ebf54b7U,
  0xbd17d0f73e6a0d03U, 0x3e90867a3d1d167cU, 0xbe0595e9bda3948dU, 0x3cb12319be106ad9U,
  0xbede9b38bdba222aU, 0x3e5e18e8bd6c8e54U, 0xbe355a1ebdf31f85U, 0xbe961c55bdb12feeU,
  0xbe137e1f3e71b243U, 0x3e5b23f33dc426a2U, 0xbe170d15be3d4c9aU, 0xbe52df5ebef57a4aU,
  0xbec1f32a3e2938c0U, 0x3d8b92de3e196b27U, 0xbe6c14ddbeb81a7bU, 0xbe3400e7bdc72656U,
  0xbe0346213eacb296U, 0x3d75bf79bdf3d436U, 0xbde06cdabda2694fU, 0xbd1edecebdd7c587U,
  0xbec49c543e0130b6U, 0x3e263149bddc7573U, 0xbe15af20bc89c05cU, 0xbe74f944ba8aef1fU,
  0xbe97e4ed3e8e3653U, 0x3e6daf05bd948db8U, 0xbe2a7d5f3e82ebb9U, 0xbda7f05fbe105d1eU,
  0xbd27428abe0bf5acU, 0xbc9ff0df3e475f97U, 0xbe4a653dbd9d69d1U, 0x3cb4c73d3eb41e24U,
  0x3c9cf81bbedbdad2U, 0x3db859d2bd3cc010U, 0xbd0e1affbe8e8c98U, 0x3d596c3bbe454796U,
  0x3d151be6bd9595b6U, 0xbb9281e2bd9d278fU, 0xbd9a534cbeaa7d41U, 0xbe996e04bd870cfbU,
  0xbe3a12e2bdb4f89bU, 0x3dc4a5d6be8da2ceU, 0x3de420e6be5aa911U, 0xbe1b869b3dbcf1acU,
  0x3e5b2445be33f1c0U, 0x3dc9f024be41fa82U, 0x3df66fe73da14aa3U, 0x3d451991bc9f67e5U,
  0xbd5fcae1be682677U, 0xbe1771afbe9d9d07U, 0x3d9721553c58fdb0U, 0xbd5861713d671833U,
  0x3d15705dbcd90d50U, 0x3d73af613b9f43b2U, 0x3e5bede03d48a97eU, 0xbd341293be708da9U,
  0xbd18375abe06b4caU, 0xbd8a1596be437287U, 0x3e535aad3afc021eU, 0xbe704107be18132eU,
  0x3e0a6c89be100d7fU, 0x3cbeeabcbd06a806U, 0x3e4436583e2f6663U, 0xbd99edb53cdd991cU,
  0x3dbcf97dbde651b1U, 0x3d0f2d453e4a11a7U, 0xbb90c9583ddbc3b5U, 0xbde492b13e6c4317U,
  0x3d9ad3e33db302fcU, 0xbb7ae7d7bdf6a3d2U, 0x3d06cf123d043c9dU, 0xbdb946ffbcffc890U,
  0xbc26acc7bd8e027cU, 0xbd25927f3c5fb4cfU, 0xbc049e87bd113b8aU, 0x3d15f56f3dbee998U,
  0x3d745ec53d4434b8U, 0x3e618bd53cfec9b7U, 0xbdaa3706be79ff1bU, 0xbe99ca3b3e26a1a3U,
  0xbe5ac793be27dfdbU, 0x3e702b4c3dcad1d8U, 0xbcffc7c0bd75ae6dU, 0x3de870c7be289a4dU,
  0x3db4e1afbe328b57U, 0xbe861563be525860U, 0xbda4b1253a8cef9cU, 0x3dc91715be6ddd34U,
  0x3e01a6f2be291b84U, 0x3d078249bd012db5U, 0x3e2e55ed3e11597fU, 0xbddce84e3e3a5c02U,
  0x3e5b090e3daf9ed4U, 0x3e05fa3f3c8b0ce1U, 0xbe4032b33e167a5aU, 0x3d4e789ebdb06840U,
  0x3de71a95bd815f25U, 0x3e005a4ebd7bf612U, 0xbd4a0f75be9c1620U, 0xbe372cabbd09d3eeU,
  0xbe14556ebda7947bU, 0xbdbb2f9cbddc8362U, 0x3e5a4e80bdcb2a0fU, 0xbe7e2775beb9187eU,
  0x3dba0aa0be05b8d8U, 0xbe5541013dfcedd5U, 0x3d7506fe3d8b6cc2U, 0xbe3588543daa37e3U,
  0x3e0e5061bd116954U, 0xbea2901ebe5b3013U, 0x3da593973df40077U, 0x3dce0fbebefd64a2U,
  0xbd666871bde0f197U, 0x3d2ddecbbd5f8d4aU, 0xbc31ccfbbcfd671dU, 0xbd4cf4a8bc18a26bU,
  0x3d10f454bd3b4ddaU, 0xbd3a2a49bd37b9ccU, 0x3c8f9119bc9675f5U, 0xbca31904bdae0bb5U,
  0xbd24e2e93d770ddaU, 0xbdc9d3d83e1fb7adU, 0x3ba3af113ddc3408U, 0x3ef627793ac64118U,
  0x3d5a45003d5aeef2U, 0xbcfe082e3d536f59U, 0xbe1373c43e014c1bU, 0xbc7dd61b3e09ea55U,
  0x3d896557be8c6953U, 0x3bc5d90ebebfdec7U, 0xbe23880f3e1a5e2bU, 0x3e85d565bea13b52U,
  0x3e900cc9be067e58U, 0xbdda20663d12afe0U, 0x3e116486be158d9cU, 0xbe1a1f1dbdc2a1e1U,
  0xbcaa234b3d944931U, 0xbe09f613be695c0fU, 0x3e097ebdbddea7cfU, 0x3d2c8687be51e382U,
  0x3e1a3a5f3ec3d8a6U, 0xbe71e7203e87084cU, 0xbe266a22bd556588U, 0xbeb482b8be338c5fU,
  0xbeb9d524bce40e7bU, 0xbdb7f2223e12f251U, 0x3e2abd2bbe29822bU, 0x3da28ac73ea22c3dU,
  0xbd3e9a4c3d1a2439U, 0x3e287983bd9fa58fU, 0xbe7b2e0e3dac205cU, 0x3dbc5919bd9e974bU,
  0xbeb37d00beac1251U, 0x3df47364bddeb401U, 0xbe227d5c3c761a75U, 0x3d7c677c3decac95U,
  0xbeb3ae4b3cd08e33U, 0x3db1ace0bd2e4686U, 0xbdd9ee70be19b9b5U, 0x3dcd21763d2a0440U,
  0xbea467c4be32cbdbU, 0x3d5906523e85564dU, 0xbc734df93e2456e6U, 0x3e47a35bbdfc3804U,
  0xbead24483e056a0dU, 0xbe33bec2bdbff337U, 0x3e84dc64be3a041dU, 0x3d7b0523bdf735a5U,
  0xbe0209503cd71e3bU, 0xbcc450f7be25de6fU, 0x3de09f2c3dd09212U, 0xbe284208bc5803f2U,
  0x3d4e45acbe4a298cU, 0x3d7a00583d47951dU, 0xbe133d19bdc87714U, 0x3e287ee1be62de2fU,
  0x3d6725e9bc1c6b6aU, 0xbcd95a86be7b3617U, 0xbe322cb03d7edd8cU, 0xbe39ecc83de51d90U,
  0x3c0693223ded5236U, 0xbdf0622f3d22e7efU, 0x3db124ca3d89c0d7U, 0x3d6be7eebd17f703U,
  0xbd8a8e083da27060U, 0xbe675e5a3daa8affU, 0xbe1c4e8ebd851c18U, 0xbe13ceefbcbff8dfU,
  0xbb04a8a2be58e734U, 0xbe3efb9dbe15e14dU, 0xbd8d73993d8ad282U, 0x3e13eda03d01353bU,
  0x3ec9db2ebe5d786fU, 0x3df9fb273d3a677fU, 0x3e1648b73e35a82aU, 0xbdec48a7bd0e6baeU,
  0x3d5613d83d5f6931U, 0x3e7d20be3dc9631eU, 0xbf041cfa3dfb204eU, 0xbe30b8de3e1ece49U,
  0x3d59d61cbd5d2c3aU, 0x3e32d42fbca24c07U, 0xbe2a8bb4bcf1ba5bU, 0xbd9ae8cf3d8a4a5fU,
  0x3da6c9d1be349ceeU, 0x3d9bf819be535debU, 0xbe02e00ebd821248U, 0xbe419db33c0269eaU,
  0xbdcf64253e4d3e9bU, 0xbe0f255fbddf63ffU, 0xbdb60a9e3a3d81f6U, 0xbdd43d693e6384f7U,
  0x3f02d8363ea98249U, 0xbe7fa99a3e47c971U, 0x3df9d1133d921f5aU, 0xbe2fa503bd60f71dU,
  0x3db7341fbd83045dU, 0xbe8d628abe13701fU, 0x3ddefd8abda08187U, 0xbca54af2bcd88185U,
  0xbe32704cbdeab6beU, 0x3d8752fa3e5f906fU, 0x3d364ee7bdadfb2cU, 0xbe23380b3e85c0c5U,
  0x3e139abcbb5765a2U, 0xbe84b5283e2381cbU, 0xbe00e9a6be5b7a7aU, 0x3dc29e3bbdb31d99U,
  0xbeacdcd7bd44ce0dU, 0xbd8a9a263e998eb2U, 0x3bca12023d6d7d0eU, 0x3dc26f4d3e659ab4U,
  0x3e43b321be94f201U, 0x3d965b973df7338fU, 0x3e1398f73dca618fU, 0xbd506abebd589ed1U,
  0x3de492443dbd8e35U, 0x3e427b4abdc829a2U, 0x3e317673bcd79178U, 0xbdd09cb73db54250U,
  0x3ec4d3c93de19c78U, 0x3e1b4c96bd55905dU, 0x3e39fc59bde6d623U, 0xbdc4db613e7d7e9aU,
  0x3e741e18bdc96ae4U, 0x3e710f033d708183U, 0xbe3d76ea3de67d87U, 0x3dcbef1dbdd32258U,
  0x3da80051be5ab2a2U, 0xbd85ce7abe151fc4U, 0xbcef4c673e539f1bU, 0x3e040f573e26b774U,
  0x3eb196473d48c2b8U, 0x3e7d71d2bdb0c7a8U, 0x3e105a933d9ed8f4U, 0x3ddc6ab23e2d7099U,
  0xbea2e5c03de57d7dU, 0xbdb460783e75857aU, 0x3e063cf63d3f37eeU, 0xbdc7e9d8bc6086f5U,
  0x3e23ce5f3eab2b06U, 0xbdb76c9bbe0b48a5U, 0xbd3fd428be2723bbU, 0x3e4957713e894c6eU,
  0xbdf90ccc3d569d8eU, 0xbe0a42f13d351334U, 0xbd326280bddecf88U, 0x3dc7e2bb3e141546U,
  0xbe66e0c53d197aa3U, 0x3dac3110be83dfbeU, 0xbe08ca2a3e21713dU, 0x3a46c56c3e3b3cbfU,
  0xbe95c5c7beedc1dfU, 0xbdaea8e4be9b5a45U, 0x3c807d1f3d96c5a8U, 0x3e002821be71db52U,
  0xbebedbcebe329641U, 0x3e2e72393bbae69cU, 0xbda6ebd1be485019U, 0x3d5858f33dfbc114U,
  0xbdcc7ea4beb5f98dU, 0x3d7132db3e40f9b1U, 0xbddad60fbd09c573U, 0xbdcfb48fbc922e8aU,
  0xbef3f8acbd89df4fU, 0x3dc74fd1bb759baeU, 0xbe00dbba3e1cbd2fU, 0xbdde2b913dab54abU,
  0x3d9534883d13cd1aU, 0x3dbfb008bdf7eb66U, 0xbdd532ccbdc3114dU, 0xbb86b8c03cc8cd51U,
  0x3dedfd77be3427fdU, 0x3d8b41cebe303af8U, 0xbe90a43e3e501b32U, 0x3e396c03be089c0fU,
  0xbeaaf6ecbc7811eaU, 0xbe06d01d3e568ac0U, 0xbe05aaddbd582588U, 0x3dd03ebdbe2115ccU,
  0xbe00d0633e1866efU, 0xbe09ade8bd2e4accU, 0xbe9b0c693e24bb28U, 0xbd8b08e33e143c04U,
  0xbe99d67abe871bc6U, 0xbe04d5153e9fad54U, 0x3e2bfe28be06af03U, 0xbe18b335bdce8b41U,
  0xbef905aebe45c7e3U, 0xbe7147c3be1303c9U, 0x3c91a7423c327617U, 0x3d67c43dbdf71cc1U,
  0x3df2191b3d002f61U, 0xbd91b02ebeb75abcU, 0xbdd45639bc9faef5U, 0xbe8a8a86bab53e8cU,
  0x3e482be5be92b86eU, 0x3dadefa2bc9adfc8U, 0x3e33c4133d965438U, 0xbe9dbb50bdfc5c1eU,
  0x3e42e04e3e05555eU, 0xbe49e85fbe95be7aU, 0xbd3b60b7bdf4e5a4U, 0x3d4906a0be7a9405U,
  0x3d82f011be5199f1U, 0xbb963fa4bd56f41aU, 0x3e950577be43040eU, 0xbeab11c4bd44b937U,
  0xbe6e6367bdd2c572U, 0xbeaeaa0abeeeb730U, 0x3d3e6f80bd940e61U, 0x3d71068e3cc26cc7U,
  0xbea6fcd0be56c722U, 0xbda73b783d8ef65aU, 0x3e0407c33deaf4c1U, 0xbe831c73be289999U,
  0xbdda99c83d4b1d1bU, 0xbb03772fbe3510f8U, 0x3d270b91be0c76baU, 0xbe8c74343d658e0aU,
  0xbd8057ac3e43302eU, 0x3e4b8913be203846U, 0xbe4de017bdf3fc55U, 0xbd10c5c0bd9cdd99U,
  0xbe896f0f3d3f2be3U, 0xbe6227bd3e8764c4U, 0xbe4282d0bcc06e24U, 0x3ecdc4e5be434f0bU,
  0xbe4f541fbe5d667fU, 0x3a5988d13d8c3a6cU, 0xbe8bfbb73e1d29e6U, 0x3e70f367bdc8c28dU,
  0x3d91a88c3ea7da2dU, 0xbdf71c443df1ac9bU, 0xbe21310b3cb31370U, 0xbdd39f5bbe251d20U,
  0xbe3a37483ea94c1eU, 0xbda0c165be047455U, 0xbe1e96dbbd176f6fU, 0xbe0442873e47cda1U,
  0xbe1e344fbad7cc39U, 0x3e027c733e3526faU, 0x3d041d483dc9b1adU, 0x3e03cca73ddd27f1U,
  0xbe2553003d580905U, 0x3e6df6123cf4ff4fU, 0x3d812d9e3d1d7275U, 0x3e4fd2763b324e2bU,
  0xbe8dc866be9a7b68U, 0xbdfffc743d445ff7U, 0x3e099352be2fea68U, 0x3d3d43e43d8f8086U,
  0xbeefb3e83bfcb271U, 0xbe0c2c753e08bc80U, 0x3e35dce43dfb817cU, 0x3e12a63ebc2d4cedU,
  0xbd6a6669bed8c9b8U, 0xbd0213cebc6f1045U, 0xbd00d6f73dc552a4U, 0x3e4a54babe3d76bfU,
  0xbea38a4d3eb5353eU, 0xbe3852cbbde0da5fU, 0xbda9c5323d47574bU, 0xbe11b0ea3e809475U,
  0xbd1c89b7bcd54c03U, 0xbe0fd683bea6e290U, 0x3df01bd4be43df1dU, 0xbe4eae823c991831U,
  0xbdf04e50beb3a25fU, 0xbe474ee2bd382ae2U, 0x3e30c5f8bddb905eU, 0x3c4eb152be139028U,
  0x3e19663b3e8c7753U, 0xbedd6622be37c108U, 0xbdc49371bd2eac3dU, 0xbdf703f1bdb1106aU,
  0x3d52b54bbe1595b6U, 0xbdaf9594be37ee67U, 0xbd234209bda41865U, 0x3dbca10fbe2415eaU,
  0x3da342a13ea17527U, 0x3e685213bea1c677U, 0x3e0fa130bdd08cf1U, 0xbb95005abda7ec83U,
  0x3e09caec3dd8899cU, 0x3ee06afabbe8c6bdU, 0x3e2d681abd07ced4U, 0x3e6e6070be0afb19U,
  0xbdad73f9bde62ce3U, 0xbd7b1c4a3e12ccf6U, 0x3e198bce3c4e21c5U, 0x3ebe2909bbf4f30dU,
  0xbe0a155c3e0cf099U, 0xbe1ac9503d7ab512U, 0xbe84528a3df1de12U, 0x3d9518743e283089U,
  0x3db5be743e5547b2U, 0x3e07707bbe11f29eU, 0x3bbced80be24536dU, 0xbdf105f8bec9da73U,
  0xbe6563ee3e5b33bfU, 0x3e22bc143cac2dcaU, 0xbec177803de46326U, 0xbdf8bb173e7c223fU,
  0x3e534cee3e996788U, 0x3cc7d9003dad08e4U, 0xbdbb1f67be569b1eU, 0xbe9ea6eb3d245bc1U,
  0x3d74d96d3ebcce84U, 0x3e1620553d805fdaU, 0xbddbc59b3ddb3f21U, 0xbda59eb5be0664c9U,
  0xbec12b4cbd2a95d5U, 0x3e948c0abd443508U, 0xbe244a0c3d4bd36aU, 0x3e4c5d0f3d90baf4U,
  0xbe7fc517bc258770U, 0x3dae8fc0bd34409fU, 0xbdece945bdf0ef90U, 0x3e4c3fd8bc4f57aeU,
  0xbe56a24a3dbdd23dU, 0x3e8812ed3da30746U, 0x3d405158bc049e3cU, 0x3d6517a13e748f7cU,
  0xbda6bff53cd2be66U, 0x3e44a666bdeddd77U, 0x3ca7cdeb3dbd023eU, 0x3e20f45e3e84a1a1U,
  0xbce99d26be045472U, 0xbe66839a3e502412U, 0x3dfa3d903e1b15a9U, 0x3d8b4a3fbd887affU,
  0xbe4f09c6bdfc2084U, 0x3e1f6cb53e955841U, 0x3ccd504abe445d1cU, 0x3cff5d2cbd23c3ebU,
  0x3e442292bd58f49cU, 0xbde49cf6bd65544eU, 0xbc9704cbbe00c992U, 0x3d98f6dbbdedc466U,
  0x3ee394f5be2441dfU, 0xbe6662c23d6c4c56U, 0xbe30c823be0086b1U, 0xbdc8926bbe2f902aU,
  0x3d7df20dbe5f09deU, 0x3e13ad6ebdef35b7U, 0x3dd4c849be179602U, 0xbe078cfa3e97a13aU,
  0x3e71e400be484be5U, 0x3d09f8cd3d3144a8U, 0xbd4e410b3e30ba86U, 0x3d06f1f13d874504U,
  0x3df15595be85e447U, 0x3eb8aa6b3d20bfd4U, 0x3d6d61aabc8bb946U, 0x3ea0ef763e44c869U,
  0xbe02c4f2bed26955U, 0x3e6454043cff972aU, 0xbe59b2bf3e0b2200U, 0x3e49d6d5bc409a6fU,
  0xbe7e640cbe1d4f66U, 0xbe2a30793dbf5a7aU, 0x3e0c9c853c89a3cdU, 0x3de0a9b5bde0e9cdU,
  0xbd99993fbe7db8f9U, 0xbd9e44cebda12541U, 0x3e52cd5abdda2138U, 0x3d9499543de6231eU,
  0xbd355f01be7c1316U, 0xbdf9f94cbd8b36fdU, 0xbe1ac9d8be0b3de6U, 0xbda15399bd94dd5aU,
  0xbebfb594bd3542a3U, 0xbe3d461a3d32eb0eU, 0xbe22c46ebdfa44b3U, 0xbdac94b0bd575283U,
  0x3e1ae83c3e904bc4U, 0x3e9c7b223d86fa0aU, 0x3d2874263e44b578U, 0x3e0604ebbca91092U,
  0x3e4c8cfa3ee644beU, 0xbbbea7033ce7af94U, 0x3e24ef60bd983b42U, 0xbea445ecbe0ccf3fU,
  0x3e0fbf45bd1f2264U, 0xbe075a3a3ce04609U, 0x3cdb5796bde5804eU, 0x3de35cd53dd5cc11U,
  0x3dd94cb63e1e2660U, 0xba4aa6a33d98a1ceU, 0x3e817e523d54b63aU, 0xbe93b4bdbe9c2fc4U,
  0x3e266e9fbe27ba11U, 0xbe889ff1be16959dU, 0xbda195f039b198a2U, 0xbd7fa13cbe9425d4U,
  0xbdf2401dbc9d946fU, 0x3e6548033db21f74U, 0xbe194fdcbd219dc3U, 0x3e0221e43da613c0U,
  0xbea34f68be0cf709U, 0xbe73eddabdbf57d3U, 0xbde43329bcf86f07U, 0xbcade8cdbe3955c1U,
  0xbec69cb2be1a07ceU, 0xbc1b79273e2e4c9eU, 0x3e8bb4c2bd9eef9bU, 0xbccbba0dbdd206dbU,
  0x3def9c2f3e90cf86U, 0xbe02ce673e6b1ddbU, 0xbd81fd25be3cbc01U, 0x3d9f527a3d9020e4U,
  0x3dfb18673c9d01f9U, 0xbc0b6b5abe0a4d6eU, 0xbe8c2cb33ddc3dc7U, 0xbd19e8d0bdaebdafU,
  0x3e8363553e41ab7aU, 0xbeea66e3bd999023U, 0x3db3ffa93d852e19U, 0xbe33a038be40e730U,
  0x3ed756573e124286U, 0xbd5f8c09bd2b9491U, 0x3e71bfb03da25f70U, 0x3e4030e43d4d98d0U,
  0x3e3e052c3ebb4120U, 0xbebd72f73de6b39bU, 0xbd3b08f63e4fbd58U, 0x3d8379b0be54a362U,
  0xbd7dc6a93e97455dU, 0xbb8774bb3e186eabU, 0x3ac665a2bdf287aaU, 0xbc911daa3ea3a341U,
  0xbebd44fdbe367bdfU, 0xbd822ab63ebb4c42U, 0xbe1ad15f3cda93feU, 0xbdac9c5b3ddb0968U,
  0xbe812d563ce38ad7U, 0x3d267eeebe659783U, 0x3e1a470e3d3280ddU, 0x3d93a3dabe32199cU,
  0xbe7e3420bd10351bU, 0x3da015dabd41a9e8U, 0xbc07de053e001d70U, 0x3de63f483df66b88U,
  0xbe521ebbbe91abffU, 0x3e8eb9d7bd88486eU, 0xbe4468b23a78a3e9U, 0xbe01f9b13e17ac8cU,
  0xbe882ce3be850613U, 0x3e255852bda8166bU, 0xbe2c4d663e3d1b32U, 0xbe1d927f3e407104U,
  0x3d40f86d3e8ea76eU, 0x3e2344eabd790263U, 0xbe1eb3a03c6d81feU, 0x3c9c19fabe83f301U,
  0xbe705b0a3dd1846cU, 0x3d8767ee3d3072c0U, 0xbda0591abdff1b52U, 0xbe241d67be6b8402U,
  0xbe4e0727bdb7debcU, 0xbcee7e273cdbc794U, 0xbe00efa73dbc19a3U, 0xbd182a643dd06f7fU,
  0xbd1cf826bd516ac8U, 0x3e85574b3c977dcaU, 0x3dc26d273e6d8855U, 0xbcc0a451be3592b9U,
  0xbe1058dd3ced0396U, 0x3e0555eb3dd56d41U, 0xbe91c4e8bde4068fU, 0xbd923adabcd35b3dU,
  0xbe343f26be7b23f5U, 0xbc92a336be26d580U, 0xbd7f6d043dcf96a8U, 0xbdf583babd89dc5eU,
  0x3ccfebbcbe04fe8fU, 0x3d90a423be1519a1U, 0xbde65059bd776179U, 0xbe41e7d6be9a0f40U,
  0xbed8141dbe90e646U, 0x3e20b76dbdf7a9feU, 0x3d21ab70bc4b8088U, 0x3e09adb33ae80698U,
  0xbd4a2c1d3daa9f49U, 0x3e8d2a783da5a426U, 0xbe3282173e14c941U, 0x3e21dfd1bdc863ffU,
  0xbe9d7477bb3279faU, 0xbe144e653e875d39U, 0xbe54229dbe09ed16U, 0x3e8afe033e493296U,
  0xbebc6a803d6de6e7U, 0x3e056d53be01aff2U, 0x3b342c5c3e18f296U, 0xbd4416683de67ba1U,
  0xbe89d812be01c0f9U, 0xbe270059bda3622eU, 0x3e300509bc46be24U, 0xbce6a4fbbe1a8614U,
  0xbe5830113e803e24U, 0xbe41083e3d5b0644U, 0xbd95d2eb3e16bac2U, 0x3d664367be21a8f5U,
  0x3e046d60be2721ddU, 0x3eca29e2bcb88d92U, 0x3d9c47593de8df42U, 0xbd97a705bc93038bU,
  0xbe899b9e3cfd75fcU, 0xbe9314cb3e857a02U, 0xbe37507fbb1a08fdU, 0xbed931cabe1d3567U,
  0x3eab6dd33e218217U, 0x3c5c9738bddf7c09U, 0xbdd0679bbd6f7908U, 0xbf016f363d300ab3U,
  0x3e0ea3793ed06e82U, 0xbca31218bd5aeeddU, 0xbe81ebb33e3d738aU, 0xbea5dcc0bc56e65bU,
  0x3dc0e45f3e639806U, 0xbf10d20d3b9c27e6U, 0x3e36478e3d730613U, 0x3daced183d3aa2c6U,
  0xbefb73883d793d9fU, 0x3daa5c8c3e8bfc2fU, 0x3deb6d8abe3845bfU, 0xbd8efdbe3e51cf63U,
  0x3d6dc5f1be512574U, 0xbe12407dbb825893U, 0x3e15252fbdfd700cU, 0x3de57965bdd20c21U,
  0xbdcbd02fbe4099cfU, 0xbe684e69be371e39U, 0x3dab54793c979f42U, 0x3e153a273e1680daU,
  0x3be184b0bcb7a283U, 0xbe21ef51be4b989dU, 0x3e41781cbd9e7a98U, 0xbd006b393db80353U,
  0x3d5ba3273c1d10ccU, 0xbd977db6be355b10U, 0xbe088f6bbdf09b7fU, 0x3d748d2fbe4a7830U,
  0xbd8868bf3e0079e2U, 0x3d948af73d6e6bbbU, 0x3e2ecfbfbb962bc7U, 0xbd512e86bcd68fc7U,
  0xbcd4b801be33a7a8U, 0xbe0e68513cde6a7eU, 0x3e1436c7bddc3142U, 0xbe3e2bb93e130d57U,
  0xbeb44be9bed8686fU, 0x3e5fe467be48371aU, 0x3d6a3bf33d522673U, 0xbc25b23a3e898621U,
  0xbe74e840be0e92a1U, 0x3d9705bcbd78b8d9U, 0xbdf59e923d5561bdU, 0x3dcc724b3e7415a3U,
  0xbe9d4430bda95f61U, 0xbe7c6745bec473c2U, 0xbd2db101bd5cf9d5U, 0x3d629b94be12b28eU,
  0xbe8534633e382f4bU, 0xbcd36daabc7e3b3eU, 0x3e05785ebe563162U, 0x3e6b0f253e652bdbU,
  0x3ddae9e13e7f1613U, 0xbd0d4de8bcbdf91cU, 0xbd36b9ba3de999aaU, 0x3e0e8a47be41b1d7U,
  0xbe134ac8bd17c03fU, 0x3ce5a6a2bbb6256fU, 0xbe9332c53c3dc3e9U, 0xbd9809543d5c32c9U,
  0x3d927a91be07be91U, 0xbe3e3fa1be1bbf3fU, 0x3e0f2c833c95dc9bU, 0x3dd6e4d23c94fcf4U,
  0x3df85ae33e538eb0U, 0xbe7437ff3e727ff9U, 0xbcfc44603c5ee22fU, 0xbe5bccc1be66fa1aU,
  0x3e349ba7bd71d7f5U, 0xbdff387e3d8ca9c2U, 0x3dafee73be1e7894U, 0xbd30852ebd63ec32U,
  0x3e0fa3e03e777cb9U, 0x3e00e963bd7c4726U, 0x3aee7eb0bde1d3e8U, 0xbd846ef6be60df84U,
  0x3e3924983e4745e1U, 0xbdc41921be0acdd1U, 0xbcd66675be0371baU, 0xbdfbd4a4bde45284U,
  0xbde071213d4b026bU, 0x3d6dc01dbd188952U, 0xbca92199bd772fc9U, 0x3ddc55a6be657256U,
  0x3e4299a8be6f6843U, 0xbe8afcf6bdf5fa5eU, 0x3ac8b2693b10a5f6U, 0x3ec96f29be176d07U,
  0xbea8c3783e6a3f1dU, 0x3e707840be402fd0U, 0x3d32e04bbdb9c35dU, 0xbe762b2d3e0b847bU,
  0xbe20fac6bd27e072U, 0xbe8da27b3e181c25U, 0x3dde15073e139aefU, 0x3e3205203d861a9aU,
  0x3c2c8aed3d53eedcU, 0xbe1a4f13be2a7697U, 0xbe6914153d859844U, 0x3de562633da8bc04U,
  0x3d0d1f8dbe38cd11U, 0xbd95fced3d76bd99U, 0x3d229b08bbc0b087U, 0x3dd70663be205baaU,
  0x3ceb19433d8c3c0fU, 0xbe81bca1be1d121fU, 0x3d35b4b53afa09ccU, 0x3e21da1cbe549bcfU,
  0xbeae1a55be8f63b2U, 0x3e111f243dfcfd6fU, 0xbe46d3883dc4f121U, 0x3e37b92d3e883a19U,
  0xbdeb7fdebe597e81U, 0x3dac8d68be68c0e6U, 0xbe33d1373e1ef447U, 0x3d726daf3ce78f75U,
  0xbe05b48cbdd45a11U, 0xbc28414d3e156c0fU, 0x3e0ee0193e22cc74U, 0x3e3695f3be1c96f3U,
  0xbf01fdc73e53892cU, 0x3dac8200be41645cU, 0xbcd925933d9df6d4U, 0x3e6ee58b3e70cd0dU,
  0xbdef3fb9bec32a64U, 0x3d2208a6bd020d48U, 0xbd93984b3defc1d6U, 0xbd10ce8cbd9e39cdU,
  0xbe8b6fdfbd2bef9aU, 0x3d3266eabdb8fadaU, 0xbec3450ebe31588bU, 0x3c914fd7be4e6575U,
  0x3e70e1013dafae7aU, 0x3ea0ab7ebd828016U, 0xbe11c1213e29cfb4U, 0xbdf3b0cbbea02e28U,
  0x3d360494bb78e5dfU, 0x3dbb5f60bbb04b8eU, 0xbd65c41abe4e921bU, 0xbe1635da3e7089cfU,
  0x3e785a073d4c28e1U, 0xbd1b89453d83fc7dU, 0xbcbc77833dbe80b2U, 0xbed418863e38e064U,
  0x3ee438cf3d11b908U, 0x3dbf5ef63dfdd2caU, 0x3dddcff7be0dc98bU, 0xbc7374b9ba1f48eaU,
  0xbdbf784fbdc8bedfU, 0x3e22b726bd18972dU, 0x3c80138bbc06c4c6U, 0x3e727b043ecf64f1U,
  0x3e0229e5be7219c7U, 0x3ca4c15f3bde01dbU, 0xbe1eb329be3fbaa5U, 0xbca5e61c3d4e9abfU,
  0x3d86c90a3d3bdb42U, 0xbe2a1300bdaedb44U, 0x3e26f0543cc76e07U, 0xbd55fe113da1ada5U,
  0xbdddc48fbc0fcafdU, 0xbe092cd4be4937d4U, 0xbd8126633d6821b4U, 0xbd8508a23da5d0b8U,
  0xbe602e9b3db9030eU, 0xbe3a1357bc906da7U, 0xbb8c01da3d83234bU, 0x3da94a79be67237dU,
  0xbd968d00bc1b0c38U, 0xbc946cad3db093eaU, 0x3e50218a3d31999fU, 0xbd092ea53d58f91bU,
  0xbe27f5e2bda5a5aaU, 0xbd3507dbbd0cd620U, 0x3c924f283d08b6f5U, 0xbe24ca993d310fcdU,
  0x3da9ebd83e0c0cc2U, 0xbdcaea2e3e413197U, 0xbe0e8ee13cb98857U, 0x3d0259f9bd9fa14aU,
  0xbe131fa1bdb10f57U, 0xbccb585dbe6f8c63U, 0x3e2c59a4bd84fb02U, 0xbe5560b8beac2cb7U,
  0x3e134ce03d6790e9U, 0xbce185d5bdc74afdU, 0x3cc8c1a53d481570U, 0x3db4ff65be187356U,
  0xbdef9aa1bdb7a16eU, 0xbb889fecbea55ae0U, 0x3e487838be1abf46U, 0xbea63945bd26c927U,
  0x3edaf101bea955baU, 0xbea1eba33e416760U, 0xbde833283d9bf730U, 0xbe451845be683e8fU,
  0xbe106eb3bd7e392aU, 0x3de756bdbd02c915U, 0x3e4119583dafa09cU, 0xbe7c794b3ea6245fU,
  0xbd91ba11be36ec65U, 0xbde140d1bd752769U, 0xbdb4a90b3d8d5628U, 0x3dd8af17be535304U,
  0xbd967fc7be13ddd4U, 0x3df063b43e3373e3U, 0xbe29a4683cfd965dU, 0xbe1b0b943d9cb673U,
  0xbe7fffbf3e20ea87U, 0x3c4193b8bde6618fU, 0xbe5c7a6e3e389fd7U, 0x3d459ced3e56c0afU,
  0x3d2fe395be514b1bU, 0xbdcf476c3e5d5097U, 0xbe39f42d3dad327eU, 0x3d30c51a3e03c668U,
  0xbdcf3b1f3d2f22e4U, 0x3ddfcdf9bdfc3bedU, 0x3e6fe2cebd9bdf97U, 0x3e43462d3d998b8fU,
  0xbd121882bdcfebb8U, 0xbe865573bd9b4008U, 0x3e3ee007be1cf68dU, 0x3e7437203e3f3fbeU,
  0xbcdf3adababf488fU, 0x3e2c1054bdbbff40U, 0x3e492c263e4a6a0eU, 0xbd81af903d3cbe98U,
  0xbf1a8571bea75732U, 0x3e0f85db3c49d33eU, 0xbd6e86de3e410a19U, 0x3e06eb4d3e7e2807U,
  0xbee2d39ebdbb3ee6U, 0x3e01218f3e2ac511U, 0xbc905c5abd888958U, 0xbcb19dda3e3bc5e1U,
  0xbf0c8d7cbebecb90U, 0x3cf954eebe11f0c9U, 0xbd2611f3babeae51U, 0x3d75ce38be7d83e1U,
  0xbf2c89dc3e4bbfc6U, 0xbd53d7b6bcaa72e3U, 0xbdfad1fcbe3c4d92U, 0x3e1b3e94bd237957U,
  0xbe887011bec551a4U, 0x3de1c7ea3e50cd28U, 0x3d931e343d8adf30U, 0x3e26a38c3e119987U,
  0xbeae03cd3e055ef7U, 0xbe704559bc933123U, 0x3e542b343e12a8edU, 0xbe7bbc6e3d6417f7U,
  0x3cb3259b3cf3ea9dU, 0x3c4c8fd9bdbd5c38U, 0xbcb122b7bdbee601U, 0xbcb9ae853ce8efbeU,
  0x3d15658c3c3060b6U, 0xbce722893c17a829U, 0x3bbd02203cb1d054U, 0x3c3431e93dd88a75U,
  0xbc588ff7bd0f5532U, 0x3d36398fbc2b42caU, 0x3c277e383c2abba9U, 0x3d0ba339bd875c01U,
  0xbd27f5cebd7bdd3aU, 0xbc5ad7933caa4195U, 0x3d31a0afbdbb4666U, 0x3ce4ebbabd8b7722U,
  0xbd57a9cabe804dc2U, 0x3d3ec9433e0043a1U, 0x3e74f92bbdaee568U, 0x3dbbffce3dd36d52U,
  0x3ca52f60bdb376a8U, 0xbe154b6f3dbb952bU, 0x3d827c6cbe1555a9U, 0xbe04dd7d3c38fec3U,
  0xbe5447f5be3eaad6U, 0xbd9cbd643da5347fU, 0xbe2d3b253a021e8fU, 0x3e42aa09bdf3bf63U,
  0x3d6d479abe0ead3bU, 0xbdf0f00b3e1ad2d7U, 0x3d1abb533da0be77U, 0x3cef45293c6733a6U,
  0x3e4b80c33e9c4d35U, 0x3e2ac1f8be2ef373U, 0xbc4b2dfd3e2d3b8eU, 0x3e08819fbe1a84ceU,
  0xbd9abe91bdc5426fU, 0x3e34fa0f3e895951U, 0x3e1cccbcbe2c869cU, 0x3cb01f35bbcb670bU,
  0x3e005507bd4dbf96U, 0x3d6a8e673e35af97U, 0xbd2b2d583e4023d7U, 0x3d1b282f3e3ded44U,
  0xbdaff39a3e073136U, 0x3da02c1f3e0d0c5eU, 0xbdb3d8fcbe004ba4U, 0x3e1970643e28fd6cU,
  0x3d4a16c43d939698U, 0xbe580bf73e554303U, 0xbc0131ff3dee82d5U, 0xbd79c6dfbe0aa8e4U,
  0x3d223f7abbbeebe2U, 0x3e1f83293dd258e9U, 0x3d912e4f3e3c87a0U, 0x3e8deaefbe1c149dU,
  0x3de49878be01d41cU, 0xbdb036d73dff0223U, 0x3d87b95dbdd6cde9U, 0x3eacb59c3d8fb333U,
  0xbc9ac0c7bdf516feU, 0xbdb3afc23d6b4313U, 0xbe22100bbcc56cacU, 0x3d5277ecbce93118U,
  0x3d1210fc3e5f0bbfU, 0xbe4357f0bd1399f9U, 0x3df02973be0b77dbU, 0x3da559fcbe83b2c6U,
  0xbd156e9c3e803a42U, 0x3dfe04b83b1e5608U, 0x3db15c463ddfbf00U, 0xbe319637bde6ca24U,
  0x3de723dd3e21ff12U, 0xbe95f7d63e030f1eU, 0xbe16228abe3c6cbdU, 0xbdc27ae7bdfe5c5fU,
  0x3ea1e87e3e57aff6U, 0xbbb08c4d3dc16247U, 0x3e3883a4bce6396aU, 0xbe8e5c183ed91837U,
  0xbec14e933df933ccU, 0xbe7f14bf3d9355c6U, 0x3d80d1f7bd9b82faU, 0xbe5b7847bec2734cU,
  0xbe84aa253e6419a9U, 0xbd29d79abde2c0c2U, 0xbe608d803e249a61U, 0x3e672ccdbe2ff364U,
  0xbdf687303e3aeef0U, 0x3d832add3e865db0U, 0x3d78a690be778273U, 0xbe0290b03da632c8U,
  0x3df6483dbd63a414U, 0x3dacdee7bd440aa5U, 0x3dbc1802be048a7fU, 0xbd8fef8bbe35b697U,
  0x3d7db1d23da72b5dU, 0x3d49e421be5c2223U, 0xbe645516bddf2f40U, 0x3e1425dcbdac9380U,
  0xbde28b393d891a01U, 0x3e7bd24d3c8a6f14U, 0xbe32d99bbea9de58U, 0x3e02dbcebe8d99a9U,
  0x3d81f4d03e54a2b5U, 0xbd7c29bc3c9ebcf9U, 0xbd15ee24bd53869eU, 0xbd60233c3d953bc3U,
  0x3d83497f3e183fc4U, 0xbe6cd896bd8e4e2eU, 0x3d2e70a93e2bd5efU, 0x3d07ccc7bd7ac88cU,
  0xbe3321703cdd7d8bU, 0x3d86ac173dbf4c53U, 0xbde5a9aebcd1dde7U, 0xbd3017eebdd48e10U,
  0xbe21f4c43d97eb43U, 0x3e86c9d73c7a89e7U, 0x3c07c66d3d1da198U, 0xbc95e2b43e0859c1U,
  0xbe23032f3dc56276U, 0x3da027c2bdb0d406U, 0xbd997746be08eaacU, 0xbd97d8673dc24efeU,
  0xbdab2ba73e21ea92U, 0x3d3852123bf08e51U, 0x3d9ce317bd8eb03dU, 0x3da26a38be1b036bU,
  0x3d280b64be517dadU, 0x3dc6312ebd17ef1fU, 0x3e4fcc96bdea870aU, 0xbcd80ee4bdc78082U,
  0x3d20e2973e447d71U, 0x3e9476a53d966823U, 0x3d91a3dfbe021d5dU, 0x3cf08807bc78a8a8U,
  0x3d581eb3bd2b91f9U, 0xbe85fba1bd66dffeU, 0x3b62c206bcb77eb0U, 0x3dd17eedbd65b3d5U,
  0xbe8163d63e64c610U, 0x3e203803bd15186bU, 0xbcb7a9e7be038b7fU, 0xbcd68b683e4aa86eU,
  0x3e0bebadbd5379acU, 0xbdfecc36bd393a40U, 0x3ea3a1923e875763U, 0x3e92a13a3d86d0abU,
  0x3eb002263eca698bU, 0x3dc958883e795487U, 0x3d5429cd3d34d11bU, 0xbcc78038bdbf208dU,
  0x3e8cac31bc004e3bU, 0xbec9e2f3bde6f8a0U, 0xbd8053a2bd829a24U, 0x3e3c6827bd919227U,
  0x3db134033e3e3a21U, 0x3dbc3ff23df5d1dbU, 0x3d493323bd10431bU, 0xbde2013b3e34de90U,
  0xbd81c8ca3da79628U, 0xbe17b3d3be2eb1b4U, 0xbd46219bbdde7276U, 0xbd493d26be5aef7aU,
  0xbcd5927cbdb3c23fU, 0x3d09d9843de0d489U, 0xbbfe6f43be3ab48fU, 0x3ceaad45bdf45430U,
  0x3defde203e181474U, 0xbc249481bcb457fbU, 0x3d5b8e8b3d817b3eU, 0xbd347d943e2f5afdU,
  0xbe395e2c3dbdbadfU, 0xbd2ba477bd201edbU, 0xbd82f6c93dfd0727U, 0x3dd2890ebe291a1aU,
  0x3dd518a4bd9e094eU, 0x3d6b1e1cbde01222U, 0xbce0445d3ddc2859U, 0xbc4087d03d87160bU,
  0xbe1571c8be179ed3U, 0xbd3921b0be08042dU, 0xbe127c99be19c228U, 0xbd774180bcb7df80U,
  0xbbedc81e3e199d03U, 0xbe357b57bcc3cffeU, 0x3e215d363d888e1cU, 0x3da432d13d984116U,
  0xbdd555cabe4089faU, 0xbdee1bfa3def04bcU, 0x3e2f77c03dc42575U, 0x3d454ca3bdf8d192U,
  0x3d1065e83cdcccadU, 0xbdeac34c3e1f127bU, 0xbe21b3ac3de276b6U, 0xbbf286ffbdb7ba1aU,
  0xbdd0788fbe2f0074U, 0x3b8e5646bd8e7038U, 0xbe024df13d66c351U, 0xbd7d8fb5bdb5fe80U,
  0x3d94300c3b922c48U, 0xbe62aaed3d35e0ecU, 0xbd78d7e93d0a4ea4U, 0xbd95eb88bd86ea85U,
  0xbc54f2273e592156U, 0x3e2799b1be1a5802U, 0xbdcf046a3dda8ed5U, 0x3ce379873e0cda7dU,
  0xbd5b0b5d3e0cbad4U, 0xbdbabf31be2b3f3cU, 0x3a4757ae3de80753U, 0x3d4e6f983ca4b11eU,
  0xbd0a2529be87067bU, 0xbe3c3953be29149dU, 0xbe226fdd3eb06bafU, 0x3e3d75993d8435a4U,
  0xbd424530bdd369d3U, 0x3e4751883e91015bU, 0x3e477590bdc9b677U, 0x3d4e34e2bde06f5fU,
  0xbc8995863e0bf013U, 0x3caf2a433e262772U, 0xbc2055703e124bfdU, 0xbc2c08e73a186006U,
  0xbe8f03b23db33dd9U, 0x3e98fc403dc25124U, 0x3d4d39f7be237dd6U, 0xbe74ea60be7c471dU,
  0xbe1decdfbe883f96U, 0xbdd8e5cdbdd6631cU, 0x3d96fe3d3e7140daU, 0x3e5e8251bd6d4ceeU,
  0x3e03e3c03e18c29eU, 0xbda7bcb83d830dceU, 0x3ec7b7a4be048478U, 0xbdd74d8abcb2f6d7U,
  0xbd5c9d9dbe086fbcU, 0x3e6f99cebd119b6eU, 0xbe6a9ef63caef82bU, 0xbe50d3d23d8942bdU,
  0xbd9d3c9ebe3e6f4aU, 0x3da72e2f3db645b2U, 0x3d2792b9be06df61U, 0xbe471639bcc6d013U,
  0xbe2ffc3abde2ed6bU, 0x3e04295fbc0cb9deU, 0x3d44393cbe51f149U, 0xbe9b9dfc3df9d8edU,
  0x3e41dea13e246b36U, 0xbd949010bebd6f12U, 0x3e784228be5db2ffU, 0x3db8ac2cbe1a2904U,
  0xbe058be23d81bcdcU, 0x3dd790c4be836f0dU, 0x3d8a316f3e08bf15U, 0xbeaaf40dbd26d198U,
  0x3dacf9cf3dc39ea4U, 0x3c9a349dbe319bedU, 0x3dd75b1dbdae6af0U, 0x3e2b20003e34b8ccU,
  0x3e1e99c2be7536a1U, 0x3d8b5f573d0c1f77U, 0x3ce84d703d88e58aU, 0xb86cb242be77f5baU,
  0x3e63f6cebdc9124dU, 0x3dd1dc1a3e25f8e8U, 0x3c5e09853e13788eU, 0x3e3f686b3b44d2f4U,
  0xbe1870bebe333eceU, 0xbe277771bd9ff7e5U, 0xbe0396bfbe2857eeU, 0x3e372c4ebd77e002U,
  0xbc75817bbe2cf7dcU, 0xbd3faff03d988921U, 0x3dc90690be1f8a83U, 0x3e8ad1253e368823U,
  0xbe02df2cbe565811U, 0xbd2ebfb93d9b0a3cU, 0xbda497fa3cc7de05U, 0x3e292c91bd637810U,
  0xbda8d7eebd7fb815U, 0xbd132a92bddee2a0U, 0x3e1cd1d93d8ec64dU, 0x3ee748753e18d69bU,
  0x3df2df3dbd78140aU, 0xbd01679c3e3d1767U, 0xbea07533bdff89bfU, 0x3dedb0733dbadb94U,
  0x3df72176bcd717c0U, 0x3d74c00c3e0efeddU, 0xbe039a5a3e1a889aU, 0x3e0b6faebc75119dU,
  0x3e5accc3bd9e08b2U, 0xbd062de43d28f273U, 0xbdd7738bbdefa002U, 0x3e0ac80b3a1e359dU,
  0xbe50297b3dd6dd63U, 0xbdad85a83e410daeU, 0x3e10673a3d44e2f0U, 0xbe64acf1be08fc36U,
  0x3e5b8bbabe39c0f3U, 0xbe12c77fbdeb825eU, 0xbd9578edbdfa59d6U, 0x3dbbdbd23cfd040bU,
  0x3d1cf3f03d579b44U, 0xbe289b2e3e0c65f9U, 0x3d4d2e73bd5c90cdU, 0xbc998a263ddc47f8U,
  0xbc85d073bdf926a4U, 0x3e0b9e47bd4fa097U, 0x3e1096363dcaf264U, 0xbc8d48163cdbf5a2U,
  0x3dc2d1173d3ec477U, 0xbe38f79c3d11168aU, 0x3dd931ddbd5b2dbdU, 0x3dab6bc0bd92b0c3U,
  0xbd73eb03bdc55ae0U, 0x3d76cc07bd55de9bU, 0x3de83c25bd139c91U, 0xbe21a34cbe37729fU,
  0x3d0876f63d15362fU, 0xbe124b583dcda7dcU, 0x3ded8bbd3d5bf32aU, 0x3caec9d7bd79af10U,
  0xbd01881cbdfe21ddU, 0x3d11cdfebd766832U, 0xbe06b479bdbc9703U, 0x3d81cde6bdf199feU,
  0xbe291d4e3dcc56ddU, 0xbbc3ebe4be2e31d2U, 0xbdfa301ebdb5a77eU, 0x3d5248093d999c2aU,
  0xbc82820abe24b111U, 0xbe33bc65bc5efd82U, 0x3d05addf3dff3e7bU, 0xbd0fb6243e123bf9U,
  0xbc3543c1be06dbfbU, 0xbe2ae6acbe285847U, 0xbd5c21283e2747b3U, 0x3d78e203bb5af147U,
  0xbd6eb0d0bd309cdcU, 0x3d9afbc8be1743a1U, 0xbe09b542be5774adU, 0xbda4d400bde75cfeU,
  0x3cefb9df3d2ce98eU, 0x3d4c14e6bdd051ebU, 0x3e1144063e152340U, 0x3b943076bc929255U,
  0xbdc090313de939bbU, 0xbe32cc57bd078960U, 0xbc22e6503e0f220eU, 0xbe026f02bdf7c153U,
  0x3e7e23083e2e5d5dU, 0xbd135e413dbb40f9U, 0xbb53f6febded8299U, 0x3e29bffd3e575b6eU,
  0xbd869c17be258e24U, 0xbda7ae0dbd638989U, 0x3e53ce6e3e4cbdadU, 0x3d768a3b3d91a342U,
  0xbdbb4744bdcf22aaU, 0x3ce61303bdeadc95U, 0xbba89cab3d7627d5U, 0x3d9ae66d3e23589bU,
  0x3e45a9183dbfbf17U, 0xbd8e44d2bd85882dU, 0xbdd3d0f33d0894efU, 0x3e788d0bbd09473eU,
  0xbd6d85733c72381bU, 0x3e40217f3e6c6faaU, 0xbe35f92cbe38bdeeU, 0x3e62ba57bcad8ac2U,
  0x3e87068bbe2b280bU, 0x3e1f3996bdf58075U, 0x3e24a8cebe2aed90U, 0xbe0a5143be79b4c9U,
  0x3c7943913d74e3f3U, 0x3cf12eafbc7efa73U, 0x3bb090703e255e9bU, 0xbe21268b3e25e112U,
  0x3e12493c3ca6be3fU, 0xbc2f0d6c3d96e9d8U, 0x3dfbad983d5f2cf0U, 0x3dab77b0bdc9182dU,
  0x3dd6ad943e9486d0U, 0x3d67da853dd490ceU, 0xbe4c0e2ebddf9304U, 0xbc5c4874bccbce25U,
  0x3d4e90a2bd5655a2U, 0x3e333dc73e58692fU, 0xbe3aa3103d08a3d8U, 0xba288708be6536b2U,
  0x3e58f07abe5174d8U, 0xbd69f6a63eaf859bU, 0x3e0a0ac73e14113dU, 0x3e28d8fc3dec139aU,
  0x3de0bbd83dfa7a64U, 0xbe854bc13d74022fU, 0x3c5303f1bb1c46a4U, 0x3ddb3000bda2286cU,
  0xbd5247bfbb73210bU, 0xbd9b3a49bdb2cfbfU, 0x3ba8c0273e2b4516U, 0x3e47e944bd59238cU,
  0xbdcdf960be7e8833U, 0x3e326455bc5c240aU, 0x3dacef99bd5ebce6U, 0xbc1526113d0ddec8U,
  0xbdc6da39be73e3d4U, 0xbd159a813da23111U, 0xbe7b41503e235fefU, 0xbdbc2c87bdae4978U,
  0x3dd58a26bc580915U, 0x3e37b836bbac6af7U, 0xbd3a3f1dbdf5f56bU, 0xbd1561cabadfdcd1U,
  0x3ce6c1823e1ad1eaU, 0xbd9b4ef23e042fe1U, 0xbbb73171bd041a11U, 0x3ea61836bbc2509eU,
  0xbcb034273e38a1adU, 0xbda5e2fa3d20739fU, 0xbcc85a3dbdeec99eU, 0x3da929bcbe4950b7U,
  0x3dc2b78f3cc1e78eU, 0x3c194abb3a8ac562U, 0x3c7bd9353c7e8bb1U, 0x3ebf416bbc51dcc8U,
  0x3d5589083e47690cU, 0x3e1aefde3df1d1e5U, 0x3c1f349cbd9416bcU, 0x3d3a56983de29e8eU,
  0x3e6758da3e8de302U, 0x3c89f28abd5eee7eU, 0xbcc697243c606621U, 0xbd4c31523d817f3eU,
  0x3d8d2759bdc0bae1U, 0x3df95c543e68633fU, 0x3e2b7a243daf3627U, 0xbd8f26eebe048528U,
  0x3c5e3daa3e472cdbU, 0x3da0c8d13e9d8d35U, 0x3d079ea2bcde1e5dU, 0x3e9a5cd6bd8bb1b6U,
  0x3de091063de4e5faU, 0xbe76b95bbddc6aafU, 0xbd3f165cbdc9e918U, 0x3e49a1013e63ded7U,
  0xbea1977d3badeab9U, 0x3da8f9f53d32aa48U, 0xbcfb1d5dbee7b95eU, 0xbe0375ffbc01ecf4U,
  0xbdc0192abdfce0bcU, 0xbdfd7ff7be7aaa04U, 0xbea382b5be2f5213U, 0x3df2b0073e14cf0cU,
  0xbe333d73be02b6e2U, 0xbdc2f699be211744U, 0xbdf26017be6ebe03U, 0x3e215f083df3c794U,
  0xbd497f3c3e0f8b4bU, 0xbdd99907be02af44U, 0x3dd53cb2be41dfcaU, 0xbe2b1542beaf31f2U,
  0xbe5c86ad3e33919eU, 0xbe5f1232be690ed3U, 0xbd7bf3e13d4f59aaU, 0xbe4fb93d3cb5b8c0U,
  0xbe2d0ed93d521cc4U, 0xbe1366cebe1a1d34U, 0xbcf0ad1a3d39565fU, 0xbdede9d73df4463eU,
  0x3d9d590bbd7d896eU, 0x3e289373beed1acdU, 0x3d84b5da3d845396U, 0xbdaf5e2cbdc4bf97U,
  0xbd1bbf093dabcddeU, 0xbe0a4050be929edcU, 0x3df592b1bcd8d8bbU, 0xbd6fe7d2be98e60fU,
  0xbd3984153d9d33d2U, 0xbe08c6a6bd9884faU, 0xbe555be3bcbfca27U, 0xbea81f65be4e2b0dU,
  0xbe5dc5f3be295811U, 0xbd4a5e57be7ec909U, 0xbe71d4debde49ad0U, 0xbda3bf973ea378c1U,
  0xbeb46fafbe56a0d1U, 0x3e12fa05be5d0246U, 0xbea47804be4a085bU, 0x3df4bea03d77e633U,
  0xbe8fcfa6be29446aU, 0x3e7179debdb065fdU, 0x3e2aeab5bd2f28e5U, 0xbde7abf5be52348bU,
  0x3e400fafbe1bec37U, 0x3e055666bdc2b96eU, 0x3e0a656fbe101015U, 0xbcd3624fbcbd2248U,
  0xbe1728623cd18a06U, 0x3e0a6654be87e2bfU, 0x3e2c2494be4a8b5fU, 0x3db256033e3c63dcU,
  0xbd776f5cbd7ffcdcU, 0x3d9184ba3d2fba01U, 0x3d804d02be86cbeaU, 0xbe6dae6abd35b76dU,
  0xbe4ca2bebe2c72b8U, 0x3e03f840be672ea9U, 0x3dc69c39bd75163eU, 0xbe430367bca61d30U,
  0xbd833990bed92828U, 0xbe7b22c7bd3178f9U, 0x3dfad0863dee9d64U, 0x3e27ce683e38ca32U,
  0x3e4d88d7bdc879e5U, 0x3e3060a63de54d61U, 0x3cc5cd553e0393fcU, 0x3d0a56e53d2e2030U,
  0x3cde028e3b48d364U, 0x3c1b5a0cbe684f8cU, 0x3db88942bc77a386U, 0x3e132f7ebdfb73c9U,
  0xbe84ea833c90ff8cU, 0x3ddce274bdb81afdU, 0xbdd8228fbd2d3bcdU, 0x3db024dc3de845aaU,
  0x3e66ff43be57064bU, 0xbdc17efbbd983d2cU, 0x3ccaa19e3d890436U, 0x3dab6fbabc5f3298U,
  0x3d2cc510bc6ee7ecU, 0x3dfe13883cdffb6aU, 0x3e2b23abbd253903U, 0x3d89855d3c94e89cU,
  0x3e81ebb2be1b1574U, 0x3d9694043e456c87U, 0xbce6e36f3e7b4caaU, 0x3c0b7e18bd185845U,
  0xbdb917b3be41dcf9U, 0x3e3fa96e3e01692aU, 0x3c45e0ce3b8b5ea7U, 0xbe10e98b3dfe769cU,
  0xbd5b63383d7541ebU, 0x3d11c150bdd2d31dU, 0xbe09c401be225c28U, 0x3de12c6bbdda24e8U,
  0x3e0146413df01a29U, 0x3e0ca9c5be208d2fU, 0x3e09821abccb6df9U, 0xbe023c593d2f3e15U,
  0xbe59f6a2be0a88d4U, 0x3d44abaf3dc4c625U, 0xbe2a448a3cd61becU, 0xbdfcb48abde69702U,
  0xbc84ede43e16fbb6U, 0xbe55ea78bd64a83bU, 0xbd7663c63e100717U, 0xbd854b21be1e48edU,
  0xbd01a0f4be2f27fcU, 0xbd52685f3e1813bcU, 0xbda1d014bdff53baU, 0xbba5e14d3d71c8b8U,
  0x3c8426fc3e123f9dU, 0xbdbe2d063d3418abU, 0xbd89b515be0ce87cU, 0xbdcea7163ca4edb9U,
  0x3d4cab463daff034U, 0xbddec21d3e03aaf3U, 0xbd93eeecbe06d168U, 0x3d978fc2bd27e727U,
  0x3dd72d21bdc0196eU, 0xbe6cf796bdcd96e9U, 0x3cf9261c3dee5ea7U, 0xbd8a4a333c6d8602U,
  0x3e2e0818bbbb2399U, 0xbd6ddd1bbd923d34U, 0x3d7fe27bbc358965U, 0x3da75763bcdd0e96U,
  0xbdf22da13d7e74ddU, 0x3dc56247bdd55a42U, 0xbdf555fd3db431bdU, 0xbe20f7423b663435U,
  0xbda36dd13db26dbaU, 0x3da36f60be1ca470U, 0x3dae14e4bdfa709eU, 0xbdc9db8abcb019f9U,
  0x3e061972bdcfb571U, 0xbe533bfebe45c2bdU, 0xbe100b5abe04f403U, 0xbe3ee89d3d94a83cU,
  0xbe0221a03d0d58d5U, 0x3d359bf7bc5edd47U, 0xbdea5c063db1d754U, 0x3d612961bc90fa76U,
  0xbe2f7f49bde79502U, 0xbd49040b3e18c4f6U, 0xbd88ed6fbd639c3cU, 0x3ccfd90cbdcedd67U,
  0x3d7c338e3cf21151U, 0x3cab827f3b5f6937U, 0x3d4b9a06bd880d9dU, 0xbe3aa38f3c36cef2U,
  0xbe025c56bdacad39U, 0xbda520b4bd4bf6efU, 0x3dd3b5f7bd71df87U, 0xbc5b272d3c04f9f2U,
  0xbdcf66133d2aa9c8U, 0xbdab5452bdbcd7e9U, 0xbe4585853e0e52b9U, 0xbe16f929bd48fd89U,
  0x3d2f7ccebd7e5bf5U, 0x3c903361be23e714U, 0x3e26db2ebde48d66U, 0xbd277f6e3dfc74f0U,
  0xbe2c35c53a69d13cU, 0xbe1fff6cbd52bb0bU, 0x3d85cf59be490a19U, 0x3cce583c3d53130eU,
  0xbc3492943dd63dbeU, 0xbe4278723c719679U, 0xbe054f7a3de3019aU, 0xbe2603983e0208ddU,
  0xbdd60b71be1f8f2fU, 0x3b5955e73d1e1d16U, 0x3cca97aebd785dcdU, 0xbd2e77413d4efa68U,
  0xbd67b937be283b4aU, 0x3dabae30be13bfd7U, 0xbe05a459be2683e2U, 0x3e03fe2bbc8198fcU,
  0xbce2a6773e064bb8U, 0x3b5c99bb3cae30fcU, 0x3de2d9f03db07920U, 0xbd1b4416bdf6aa18U,
  0xbe1d6c903d72b654U, 0xbbe405f4bdf7d3fbU, 0x3c5f2e603d9db8bcU, 0xbd6754ce3cd08fafU,
  0xbe1417093e30efd5U, 0x3d66a5f3bd16faf3U, 0x3d2d2302be786713U, 0xbe3b866d3d8ede61U,
  0xbe8c065c3e0c33d1U, 0x3d46686bbda9f6baU, 0xbe2a00193e0305c5U, 0x3e41891fbe8cea56U,
  0x3c4badb3baea48c2U, 0xbe50ddbabdcf7483U, 0x3da91d13bbd60816U, 0xbeb70f0dbdedfd8eU,
  0x3e904499bc61ea61U, 0xbe2d16853d6683dbU, 0x3c783158bd8ff0cfU, 0xbcb011e53e1cd190U,
  0x3e542fdd3d9337edU, 0xbdcfd772be399e23U, 0xbe388070be1efd30U, 0xbb2c234abd9c2284U,
  0xbd5af525bda02297U, 0x3e8ade1bbe5069cfU, 0x3d002ec43d129658U, 0xbdcb0d4bbe63aea7U,
  0x3e24c4ad3e5f04d0U, 0xbb3d19c0bd315ff1U, 0xba946e22be3fe9a7U, 0xbe3789ad3da0669aU,
  0x3bd023653cc4722aU, 0xbe709c37be35fb79U, 0xbd8652e0bcaa261dU, 0xbba6380d3d909497U,
  0xbdb2b5333ca765fdU, 0x3d25e313bcc5f209U, 0xbc9d2b6f3d80a678U, 0x3d2d7236bb168fc2U,
  0xbe154bf53df1252fU, 0xbc3b7350bdb951f0U, 0xbe01db47bdf9c027U, 0xbe1cf32dbd79d870U,
  0x3d9f6bb8bc2d05d0U, 0xbdcbeb28bd9e3dc8U, 0xbdd69661be46385aU, 0xbe1ca9303df09ae9U,
  0xbdcb9373bc4b0a2eU, 0x3bc3944abce65831U, 0xbe2636423de586c6U, 0xbd9ad647bdcb47dbU,
  0x3e16e8a03e47ebbeU, 0x3d5094773d379057U, 0xbcb528633e31fb06U, 0x3dc978333dafc0c5U,
  0xbd02bdbdbe128d31U, 0x3e1e657b3ded6e94U, 0x3deed85d3d0ccf51U, 0xbd07aa06be561f8eU,
  0x3e06e293be30a373U, 0x3cf2629f3e8c4220U, 0xbdb1be3c3d23276fU, 0x3c1e5c333d8543cfU,
  0x3cdf6470bd8cd6a7U, 0xbe0e826e3e0d820bU, 0xbcf2fa8b3e268bb9U, 0xbe17d8f83c3c9d27U,
  0x3dd7e5953daf3797U, 0x3c8ca4b3bdeb00beU, 0xbc3553063dbd74efU, 0x3da93af13e611b07U,
  0xbda6b576bd4f0383U, 0x3da34c503dae3b02U, 0x3e4592a23dfd4760U, 0x3e3430323c3ae6d9U,
  0xbe008858bd84fef8U, 0xbe183c71bdda4776U, 0xbe0c23e4be007b31U, 0x3e0ca782bdb248beU,
  0x3e5e48a6be876685U, 0xbd6ce2b5bdbfcc57U, 0x3e04f57bbda1bffaU, 0x3e2b4406bdab588cU,
  0x3d4f51f3be08ed19U, 0x3c27bca53d268f77U, 0x3cf70942bdfb3267U, 0x3e1cd1d7bd5cba42U,
  0x3dede3883dc50edbU, 0x3df45273bb9e37a4U, 0x3e26d5cdbe5cf368U, 0x3cc7ad25be6c5498U,
  0x3dd0b79c3e0f64e4U, 0x3d7597de3e212c61U, 0x3d94c3eb3d36ec5bU, 0xbc06422e3cf6c4fcU,
  0x3cf7060fbe29f261U, 0xbdb60a07bd011ac4U, 0x3e61ba90bdfbc7caU, 0xbccc8c413dcd4eefU,
  0xbe2800633d09215cU, 0xbe2b9ef5be293574U, 0xbe0759a23da3b927U, 0xbe6e3b613c27d6a1U,
  0x3e33a2943c382518U, 0x3e5648dd3e7667faU, 0xbd0affe9bdaccdc6U, 0x3b971890be821cf2U,
  0xbd962b093e2c4b83U, 0x3dd008383d52c109U, 0xbe0140babd3b1a89U, 0x3d25e594bbb6e7b0U,
  0xbe845d53bdb0206fU, 0xbcb35b4fbdaf5754U, 0x3c2d1d40be24c861U, 0xbe36d43bbe864788U,
  0xbe37fa1d3da07562U, 0xbe08d6c43d8dbb69U, 0x3e6def65bd1ec830U, 0xbdf644f73a6f07adU,
  0x3c4db7013d91f6d9U, 0x3dab8036bc071f32U, 0xbd6c400e3d8b396eU, 0x3dbd20fbbe06edb2U,
  0x3cbcf7dabd1da328U, 0xbe286f083ed36f2eU, 0x3d591593bdca3be5U, 0xbe0a96eebd7cb743U,
  0xbe04bb9c3e1bba88U, 0xbd6bc711bde6e4cfU, 0xbd9b5324bdd80441U, 0xbadedc03be55f826U,
  0x3e7d086e3e3672abU, 0x3e2772fbbde45337U, 0x3e9d6fb93dd5e672U, 0x3e4272a3bd3b2d6bU,
  0x3eb61025bd24d50bU, 0x3b13ccb93e578bf0U, 0xbe2694e13e8535fdU, 0x3eaf4531bde6a638U,
  0x3ecf71cabd41ec7dU, 0xbe084aa6be6a9163U, 0x3e084e903b02ee54U, 0x3e3a0b47bd08af89U,
  0x3e08d4c2bdc0da9aU, 0xbe3791bcbdea57dfU, 0xbe3b253b3ca76e1cU, 0x3dd27069bcb4b877U,
  0x3e7008563d7c3817U, 0xbca1070bbd61fb0bU, 0x3c4e070cbddae27cU, 0x3e7803203e5f82a0U,
  0x3aca520dbdd8955fU, 0xbdfb3c9bbd927ed0U, 0x3da83dad3d1f004cU, 0xbdf18cb53ce6b2e2U,
  0xbcfa2c7f3d99f9acU, 0x3ddfc1913e246e94U, 0x3c0a8b37be03a7ffU, 0x3e27e82bbddd86aeU,
  0x3e94986d3dcb1239U, 0x3d1443163dff7494U, 0xbe62e6c23d19d261U, 0x3e5467b13d8291dfU,
  0x3e1c9a7bbda8e918U, 0xbc24be65bdd4b01dU, 0xbe90fe6cbe315a08U, 0x3d2b7c81be5dbf70U,
  0x3e1cc55a3dabd753U, 0xbdd006e83cd1c6e6U, 0xbe008dfbbe0733baU, 0xbcade604be9f0f02U,
  0xbe3bbb6fbe1efa38U, 0xbe3bf1de3e3c5f85U, 0xbd5a37f93e6d1dbbU, 0xbe0c8aacbe2f2449U,
  0xbdb37160be45b78fU, 0xbd82e81f3d68c365U, 0x3d8e21dbbd0ad666U, 0x3e0021f9bbf74a63U,
  0x3dd0257f3e73dae7U, 0x3e360a9e3e4b5648U, 0xbe18a638bbf7886fU, 0xbe46300ebe0bcbcfU,
  0x3cc535e5be9afd14U, 0x3e14f4cf3e03fc2aU, 0xbd81bb633ccade34U, 0x3e59d143be83d3feU,
  0x3e3d423dbe7e6fc2U, 0x3e4eb4ab3e5c26a0U, 0x3d1fde77bdadd45cU, 0x3e2fba1dbd117ffbU,
  0xbed047edbbec855fU, 0xbcc31331be1cab61U, 0xbe201036be2264a9U, 0xbe23d2f3be387c44U,
  0x3e29e3e4be756ebeU, 0xbde32afe3e18b4ddU, 0x3c75b2d1be03b55cU, 0x3d0d85ecbd3b5917U,
  0xbdd6c114be948f1dU, 0x3cd930f1bdf33731U, 0xbddb4c0abb8f37faU, 0xbeaf5f453e77ef02U,
  0xbe9a3f113da2624dU, 0x3d054b6c3d2d0324U, 0xbeacdb49bddde129U, 0xbe0d2c4ebe2446d6U,
  0xbded8b333d893b14U, 0xbc8d6a333e4f2a43U, 0x3d913bd2bdb2a8bcU, 0x3e149f113dbf48bcU,
  0x3e9a20e23cbe0d29U, 0xbdca2a7fbdb335d3U, 0xbd34cea83b5058d6U, 0x3e60b5043d3a4033U,
  0xbd75ccd3bd90916bU, 0x3ddf51213e067e2dU, 0x3e1032e53c818ed0U, 0x3e2be4d73dd41e6dU,
  0xbe0a18bfbe1026d3U, 0xbe6208193e5cdb6cU, 0xbd03bea13d76d0f8U, 0x3e9e2e443e396a54U,
  0xbcf5d15fbe34fd2eU, 0x3d0ddc2b3cf0ce05U, 0xbe13fcf2be40aa19U, 0x3e0f851a3e0db617U,
  0xbdaa32fa3d6b9576U, 0xbe0290ddbcd1149aU, 0x3dc8ca57bd894dadU, 0x3c179bc7bdb6d310U,
  0x3e77ae41beb0c2e3U, 0xbc08aa16bc22b92aU, 0x3e12611abe367bb3U, 0x3dacacccbea302a6U,
  0xbc193e6ebca39dd0U, 0xbd961686bda696d9U, 0xbd81ebd23e80a4daU, 0x3ea22183bda0531eU,
  0xbd92788abca86bbdU, 0xbde96e273e1c901aU, 0x3e625c073e3f0428U, 0x3af1f1363d85f8f4U,
  0xbe3f4e3d3e107a7cU, 0x3e8995a03de2614fU, 0x3cd634cabdd7f8c1U, 0xbe6f6deebe25bb62U,
  0xbdfc45fa3e2d2447U, 0xbd699d83bdfa4937U, 0x3d3845853de77345U, 0x3c3b897b3d8ec22cU,
  0xbb0d98dcbdcbccecU, 0x3d6051ad3d435656U, 0x3d0f32283d9cda8fU, 0xbeb5d98f3e01e5b9U,
  0x3df100ea3e48eb85U, 0xbd79aad3bdec6998U, 0xbe226fcbbe70bd0bU, 0xbe28cd8f3e527267U,
  0xbe979067bd0c9aa3U, 0x3e5431183cf79e18U, 0x3d851fc23e4ae338U, 0xbdc653debc8ae58dU,
  0xbd3431793cb0df3cU, 0xbe0bedb93d1bf52cU, 0xbe1a586fbca559f0U, 0x3ddab558bd982c3eU,
  0xbdc7c2203c08557bU, 0x3d21edb0bd98d781U, 0x3e40c36dbc64dd1eU, 0xbe44e688be2009dbU,
  0xbe3fb4d3bb495bbbU, 0x3e644ae9bdef0fdfU, 0x3ea6753c3d874befU, 0xbece56d03e054849U,
  0xbe1c145d3d2e3dd1U, 0xbe5619833d53c7ebU, 0xbdbf82f2be67b771U, 0x3d319063bc0b74cbU,
  0xbe6c71363d893eabU, 0x3e0cc3b83df19665U, 0xbe903eccbe873ac8U, 0xbd5414013e3d413aU,
  0xbe7893e0bc249f35U, 0xbd8428eebdbd0030U, 0xbe0de0b3bc1a5d65U, 0xbe1f9a8ebdc5f333U,
  0xbd9e9c7dbde26dbbU, 0x3e35593b3beca523U, 0x3dcb7719be52e851U, 0xbd689c49be0b7253U,
  0xbe171b7cbcbfa4b7U, 0x3ebb99d8be25fe4cU, 0x3e857f273dc7c84bU, 0xbdebc42abeb0827fU,
  0xbdcd9b623dc6f60dU, 0xbe0113d9be24534bU, 0x3e0c15b63e80ca48U, 0xbe0a2801bdac1c51U,
  0x3e7730b63d16b7b2U, 0xbd2e54b23e04de14U, 0x3f091b22bda65143U, 0xbd3f11f0bcb56a3aU,
  0x3e85ba023d1055bfU, 0x3e410b6ebd3d89d1U, 0x3de5a0eb3e6003d3U, 0xbe9b35dcbc0fcc32U,
  0x3db85a953dc5be9fU, 0xbe1f8c983e05121eU, 0x3e5ef8073b83d68dU, 0xbd125336be3c1be9U,
  0x3d44c0683dc7bf28U, 0xbdf2d4c63e2e02c7U, 0xbb53205ebe20a4cdU, 0xbdb08bb13dab1e0cU,
  0x3e3dd146391d04ceU, 0xbe0e1582be7f7803U, 0x3e1a8c47be6f0d7bU, 0xbe0ba6ee3d963d6bU,
  0xbe0593b2bda77dc5U, 0x3e34fff5be9764ecU, 0x3de15220bd4e7e15U, 0xbead0c453d223490U,
  0x3e579522be9c38a8U, 0xbd2a48273d9145bcU, 0xbe4901633e43fefcU, 0x3dc82dd53e1c2a18U,
  0x3cc38c31be3a08f2U, 0x3bb021a4bdbd25e6U, 0xbcc672113e416fe8U, 0x3dc3168f3e77bc35U,
  0xbe1f9cc7bde86ae0U, 0x3d0b1c943d80327aU, 0xbd580e623cb9fa73U, 0x3cec8716bdda4d06U,
  0xbdfa754d3e1ff640U, 0xbe4d1c913b407b45U, 0xbe8af9d73e6c85fdU, 0xbde6445b3e1a4300U,
  0xbdc3cce53e5084c4U, 0x3e533c71bc047b12U, 0x3cf2ac8a3d31cf7bU, 0xbe0ebfaabe755385U,
  0xbe27087cbdb33a28U, 0xbec5205abe856809U, 0x3d8a984f3e28180eU, 0x3d18f81dbe39d3dfU,
  0x3e257093bdbcd0b7U, 0x3d0285163e0098eeU, 0x3e8e851fbe26a54dU, 0x3dc2aec7bd367170U,
  0x3dbe72743dec2d80U, 0xbbb12301be06b99aU, 0xbe30d5e8bde16a84U, 0x3daf4e643dc5cd89U,
  0xbe5daf7f3dec6349U, 0x3e93afb3be040667U, 0x3e3129f1bcf6628fU, 0xbd635a14bcf6ed81U,
  0xbe6670aa3cf2ffe8U, 0x3cc560a2be0a8d11U, 0xbdc54390be2283a6U, 0xbe2bf7cc3e314c27U,
  0x3e4257483ce242e5U, 0x3d7e0b993cab3716U, 0x3eabb207be53f484U, 0xbe89586f3d878b82U,
  0xbdd6a54b3e35643bU, 0x3e9cfe1abe9a184fU, 0x3d727be03ddf3be5U, 0xbe832c3b3e064a1eU,
  0x3dae08bf3dc08e23U, 0xbe58d216be2c2f42U, 0x3de341f33e563b30U, 0xbd782e4abe26b025U,
  0xbe457e2e3de3d513U, 0xbda2e0433e06e8aaU, 0xbdc5e9adbdb3328fU, 0xbdf15b183e8b6134U,
  0x3d4469fc3dbba420U, 0xbe5abbf9be2df5d4U, 0x3d7d09723b376f42U, 0xbcb94493bd085eaaU,
  0x3d9b02c9bca4b7acU, 0xbd22a8473cd4db6aU, 0x3e08d5ddbd3e985aU, 0xbe99aeba3c12632dU,
  0xbc7cf0993e5cfe7cU, 0x3e93b471be041519U, 0xbd8b4eea3e386cd4U, 0xbdb8a766bd2a5ffbU,
  0xbe3fde99bdfc68d4U, 0x3e6f252bbc8a02c4U, 0xbe0e6fbbbddd4016U, 0x3e29f0d73de836c6U,
  0xbd6dc7503e0c0e8eU, 0xbe11a872bd81f148U, 0xbe1631993d8ebf77U, 0x3d0b401cbd62ea09U,
  0x3d56e1f73e078e10U, 0x3da821023ddc04cbU, 0x3e6ad907be0758fdU, 0xbdaa52bf3e1ec882U,
  0x3e75cadf3e485c8dU, 0x3d91c238bdaa1c3bU, 0x3e5280a23e04bcd2U, 0xbc83b2b83e627653U,
  0x3e2876a03d810f64U, 0xbde944753e100919U, 0xbcfe0a003e040ec7U, 0xbd7b8484bd085ee8U,
  0xbcc307893c85255cU, 0xbe16242b3e8a8b44U, 0x3da24ec93e45f49bU, 0x3e9073123de4c4abU,
  0x3d0e5e32be507d00U, 0xbd826bb83cce6f01U, 0x3e07e63fbde500a0U, 0x3e7f2fe33e1a2e2eU,
  0x3e22b1a8bc811f69U, 0xbe22311f3d811d7aU, 0xbe471a97bd111a47U, 0x3d877a40bde24754U,
  0x3e3d127c3b3f9ddeU, 0x3da5a943bd62e643U, 0xbe04f4a73db09f39U, 0xbd6d5e87bee59c3bU,
  0xbddf1a5c3e5023ffU, 0xbd7106a53b1633b7U, 0xbd14e5953e21a2ddU, 0x3e04caddbdb400b5U,
  0x3e25002b3d948ce7U, 0x3da6b46c3e3fd5adU, 0xbd419170bd4dd768U, 0xbc8986dc3e375b0dU,
  0xbd5196a23df9c778U, 0xbdd2cbfe3db418a0U, 0xbce7a718bea4d6d8U, 0x3bceb35c3b7f4d39U,
  0xbe36a1113e724811U, 0xbe30fe4abe599369U, 0xbe829958ba989d26U, 0x3d88c23fbe0697e3U,
  0xbe41a9053dfe3ef6U, 0xbe12dc23be4fcb58U, 0xbcdf202dbe6820f0U, 0xbe0b6857be319b3fU,
  0xbd53899e3e823ff7U, 0xbdda6f79bd36961aU, 0xbdcccc833b213e2dU, 0xbe17d76fbe8b2c95U,
  0xbdc514ef3dac2853U, 0xbe317eab3db83c14U, 0xbe2edf66be1a9126U, 0xbe189355b9656d57U,
  0xbe1441713e9266c6U, 0xbc1520453c2f89f4U, 0x3e1627093dfe3a48U, 0xbd6ce3823e54d179U,
  0x3c92d600bd03955fU, 0x3b11973abc3a427cU, 0x3d69eb17bdc863f3U, 0xbe96a297bd0f2987U,
  0xbeb12bfb3c03e829U, 0xbaa7629c3bab8ff8U, 0xbc5c94193d586284U, 0x3c5e0fe6bdf498abU,
  0xbd31d32fbe05b288U, 0x3cce4969bde00a1aU, 0x3e0dfec9be964decU, 0xbe12bc7abe9bb551U,
  0xbeb9724c3ce7927dU, 0x3cfff028bd93bf1bU, 0x3d430be1be8ed412U, 0x3dce3dc43e0d182aU,
  0xbe6690883ddd25f8U, 0xbe23ae37bea38194U, 0x3dca358d3d347f91U, 0xbe5c5a623c525967U,
  0x3d17f319be12cf4fU, 0x3e07d7cdbcc51de0U, 0x3ddc5dc73d24eef2U, 0xbe3cb822be0b6115U,
  0xbd8f1d0b3d7768a4U, 0xbe1f28c23d98290fU, 0xbe1cf291bd29222fU, 0xbdef2f93be3543feU,
  0xbe1d7bbd3d8d2dc7U, 0x3d93936f3caea385U, 0xbcb67cb7bdece9b1U, 0x3de806a13c2d178dU,
  0xbd7c8b49bdad56f8U, 0xbdafd81c3db5ef4eU, 0xbe0a725fbd588ae7U, 0xbd31b16a3e0e54ddU,
  0xbe212facbdab063eU, 0xbd9795fabda2d00eU, 0x3d31adcb3cd47143U, 0x3d4ccf9bbdcd446dU,
  0xbcc57a78bdb43279U, 0xbbfd6c6fbdb8795dU, 0xbdfec6fabe2f626aU, 0x3e01ec71bceae6efU,
  0x3d347ded3c67d4baU, 0x3c7f3312be671a99U, 0x3d8b7ec5bb4d6c58U, 0x3d54a1cdbe288b8bU,
  0xbdf7d882be1d12f6U, 0xbd200730bd4aa427U, 0x3dc29fb13d953ae7U, 0xbd95a931bd553864U,
  0x3ca79638bdf4fa1fU, 0x3e32c14d3dc8a571U, 0x3e32f165bd84cfadU, 0x3b56debc3b591f2dU,
  0x3de712ddbd399553U, 0xbdd5749fbdfad5c3U, 0x3c312099be35b7c0U, 0x3db4f61cbe147b22U,
  0xbc071a753dcd61f1U, 0x3d0129b53d86c7d2U, 0xbd8da1fabd27ad14U, 0x3dd13c2dbde711c7U,
  0x3d18f5233d5a760bU, 0xbdc400473db0dff6U, 0x3d9b3cc43b9b9347U, 0xbc52c081be2a5d9eU,
  0xbe2e1b463e0cf32bU, 0xbb021055bd85829dU, 0x3d7b51f8bdea871eU, 0x3b5843fe3e113cbfU,
  0xbdaafa853dbfe74dU, 0x3e44296abd820286U, 0x3d6f5d403d9eaae3U, 0x3e08166ebe56e8e2U,
  0x3c209d95be0a6b15U, 0xbdecd4c73d36f191U, 0x3e0d9342be016a7bU, 0xbe39581abe26e547U,
  0xbe250f893d593748U, 0x3de9a85bbe2be927U, 0xbde96ba93e434b54U, 0xbdd3bc353cdd5c48U,
  0xbc8e17b33e0ac449U, 0x3eb08f433d82d613U, 0x3d14586cbe244aa4U, 0x3dfdd8d33dd3ec88U,
  0xbc2cbcf93eb0d5c8U, 0x3e0d1fda3d34c65eU, 0x3e0b0047bde024d2U, 0xbc4102783e1f90b7U,
  0xbd9a2aa5be09431cU, 0x3e82e7af3e91f9efU, 0x3c1de31e3e44423bU, 0x3ea48628bdce899aU,
  0x3e1ba8b43dac4beaU, 0xbdfb3b0a3eae867dU, 0xbdb86bc23e274544U, 0x3d28d5433e0a7e6eU,
  0xbc50bcff3de7b441U, 0xbe4bc01c3e4c52a1U, 0x3e2427f93c9de335U, 0x3da5b2b63e2bd01dU,
  0x3dec6b45bd991deaU, 0xbd0347513de2194bU, 0xbd837b993db524afU, 0xbdcee7f7be19f6f7U,
  0xbd098997bd776a4aU, 0x3d28a219bdce0b53U, 0xbd756b02bcae5c0aU, 0xbdaba77c3d2262e1U,
  0x3dc3dff8be1210cbU, 0x3ce4ab7b3e12f341U, 0x3df3d121bd488d82U, 0x3e85564b3e3764f3U,
  0x3dbf38fb3e1221daU, 0xbcd493bd3cfef5b3U, 0xbe96f57f3dc34533U, 0x3df9e8dcbe27717cU,
  0x3e0861e73d7f16a9U, 0x3e3e78733e40c5d7U, 0xbd093c58bddcc6afU, 0xbde6bf43be0af7bdU,
  0xbe6f066b3d998a59U, 0x3c852523be907941U, 0x3d4c81803c5776e0U, 0x3e0f77f93dacd672U,
  0x3e22d73a3e9159f0U, 0x3e244ee1be0966c0U, 0x3bb6dc1fbe5733dfU, 0x3be58ca3bdf6fcfcU,
  0xbcffb2583e514e22U, 0xbe4fb3babe94afa1U, 0x3e480887bcb8a280U, 0x3ce34673bc01a2a2U,
  0x3db48245bc8c6dbeU, 0xbe087b96bda1f95aU, 0x3d882be5bdc6657eU, 0xbe6e6385bded7bf3U,
  0xbed84ce03e728175U, 0xbe27aac1bdb32e7bU, 0x3e968526befdddfcU, 0xbdd364b23d685112U,
  0x3b0fdc183e83f486U, 0xbe8c07dfbbe2c322U, 0x3da5cfe2bd9e0610U, 0x3e2c7e4bbb857797U,
  0xbe118053be4380f6U, 0x3c0bbd9dbe0974d9U, 0x3c2be8fa3e5d2eaaU, 0x3d34958f3d8a9ee1U,
  0xbc2db3513dce0f92U, 0xbcc9ca073d3711bfU, 0xbc2c43eabc92df88U, 0xbdcc405abe3b7dbbU,
  0xbda10c553e96e075U, 0x3e9a88babd0e43d9U, 0xbe165c6bbe8ae990U, 0x3da12277be8085b8U,
  0x3e664d1f3d6f2941U, 0xbe358410be051416U, 0xbe0ce4223dea353dU, 0x3c6743c43e10c2aaU,
  0xbdf17a1ebdc453b6U, 0xbe842189bcf34908U, 0x3c02762abda99a0cU, 0x3d758b28be93adbcU,
  0xbca44f7fbcd9592eU, 0xbe631f9dbe0b35e3U, 0xbda7e7323de6958aU, 0xbdcb2d79be895b90U,
  0x3dca40ffbd8b88ecU, 0xbd09c2e53da3a6adU, 0xbcc601a8b9100429U, 0xbc7e45023dddc090U,
  0xbe07a104bdba67d9U, 0xbe5c150f3c3b2813U, 0xbcd21fb33ca9ea3aU, 0xbc845e233d2a42c6U,
  0xbd8241c7be2b6fd6U, 0xbe3fc2643e01ead2U, 0xbc83ca833d592b02U, 0xbe09780cbe3832acU,
  0x3c2a8305bc5905bbU, 0x3d45f73c3c2b25eaU, 0xbd4f9622be43186cU, 0xbcd9563b3d948d66U,
  0xbc79bd96bca737aeU, 0x3e246db3bdf1cc23U, 0xbdeb11663dda7266U, 0x3d741577bdff9db2U,
  0x3e25f3e3be2d7bd9U, 0xbe36cb05bd2ab6c4U, 0xbe241b02bcc4dde7U, 0xbe3e3dedbe0f14ccU,
  0xbe5c7484bdf843edU, 0x3df97cab3de7c872U, 0xbce61fb83d5e5f22U, 0xbd185187be3d91bfU,
  0x3d3b2930bd9d7640U, 0xbe3d6d5d3d0015a7U, 0xbe0a10213d06b156U, 0x3d86d89abe4a5727U,
  0x3d019f2fbe24ced8U, 0xbd014fe53dcec1d9U, 0xbd66fb80bdb06758U, 0xbe63ba46bdfc9f69U,
  0xbbbade8dbd42eea0U, 0x3da1a7c0bd9803d6U, 0xbe85ef87bd24e5deU, 0x3c948ddabe22140dU,
  0x3e159abb3dd1b558U, 0xbe3bfb5e3e083404U, 0xbde456a6be1b937fU, 0xbe1b430dbdf75a66U,
  0x3dd0143b3e255b0eU, 0xbe539f7ebe3b61ceU, 0x3d5f0701bb178e86U, 0x3d60aee1bd154a36U,
  0x3d13d03dbbf9735bU, 0x3d0e52983d13834eU, 0xbe30e096bd95a1d9U, 0xbc83ca3f3c5efd0fU,
  0x3dbc19c9bdf5f9adU, 0xbd22412fbd6467f7U, 0x3d2198c43d57bb8dU, 0xbdabf368bdc2ef9bU,
  0xbdd8e0803c166cadU, 0x3c48f706bdde3f1aU, 0x3d8433463d9bf4c2U, 0x3d8e58153d2cba2eU,
  0xbe06fabf3e16d14fU, 0xbdfad9d43d4382fcU, 0x3d87862f3cd29c79U, 0xbd9382e6bdc5764fU,
  0xba80cc8dbdd9980aU, 0xbe04e93ebe50d349U, 0xbdc6c1bbbcba3b38U, 0x3e0505bbbe2b9c5aU,
  0xbe799b3fbd2f11e4U, 0xbdfb35ad3c99fd65U, 0xbd7b6abdbdaa3464U, 0xbe090402bdf13d1eU,
  0x3d5057313e09fde1U, 0x3c3f45b9be7f29f7U, 0x3d97b631be38d5e4U, 0x3c87cc87be5a61e7U,
  0x3e1ef73bbd9be997U, 0x3e0263f63c350acdU, 0x3dbc1d0e3ca059c9U, 0x3dd249133d9875e7U,
  0x3d79892bbe250569U, 0x3b49cad13d41e69cU, 0xbe1e7efd3deb2985U, 0xbe041483bd88ed39U,
  0xbe2d78b43dbe5e53U, 0xbe227273be02d84cU, 0x3d8459afbe11fb86U, 0x3db6e1e2bde59282U,
  0xbe5376d1b7cf370aU, 0xbe0f5f43bde0f5b0U, 0x3d81e9e5bcebcff0U, 0xbcaf105abe28ffd2U,
  0xbe334ed63d4f2423U, 0xbd275dedbc66d087U, 0xbdfb97c23e0d1d9aU, 0x3d8dddc4bcb51cc2U,
  0x3e0411e4bd1342f0U, 0xbd83fdf7bd2d6d8cU, 0xbc161361bc1d4c22U, 0x3b935f3e3d119e6cU,
  0x3dcf6a67bc858897U, 0x3e163d76be020a0eU, 0x3dee9396bdc8603bU, 0xbd15cb7e3d495accU,
  0x3c9b33e5be10525dU, 0xbd981c973dfe9a3bU, 0xbd6c24ae3d279513U, 0xbd1fffb63e1cc405U,
  0xbe460775bd8d06c6U, 0xbdb1b151bc1aee18U, 0x3d8c005dbdf24db8U, 0x3b949e813e134416U,
  0xbd93c46e3d6336b5U, 0xbe306762be4b02fbU, 0xbcdadcc93cac0411U, 0xbe21d620be0170d4U,
  0xbd85e2dd3e14dba3U, 0xbdeb1f883d70a58fU, 0x3d9f1a953e02d3f5U, 0xbd2c6c7cbd48ddc8U,
  0xbd40e6943d0692e1U, 0x3c901bb53d856abeU, 0xbd7fc2373d9ea61dU, 0xbdb3880dbe3f032eU,
  0x3dea342dbe0a7285U, 0xbd86f4ff3dbac7e5U, 0x3db6d046be32bd9bU, 0x3ded6410be20f842U,
  0x3988da94be3ed755U, 0x3d5a3361bcb50964U, 0xbdbc8c563dbe3588U, 0xbe36c35fbe02bbd7U,
  0xbdf8d1f2bde92270U, 0xbe33bba3bd49fb67U, 0x3d22bb3d3c9ad5c5U, 0xbdba7c643e297c0aU,
  0x3d32a8d4be0cf1deU, 0xbd15c492be2b3b7fU, 0xbdb76bd5bc5ca46bU, 0xbd506866bdd7cda3U,
  0xbe7429673dd00aedU, 0x3df45c63bdecc508U, 0xbe4f995dbc58f947U, 0xbcc941f4be7239c8U,
  0xbe2733cdbe1e6fe6U, 0xbec41f3fbe376379U, 0xbe6cd3b5be11ec98U, 0x3dcc62cb3da6a195U,
  0xbd0d9741bea06f5aU, 0x3d96e472be5bd95dU, 0x3e8fdb84be8b2b44U, 0x3defd93cbd3d1db1U,
  0xbe28acad3d838034U, 0x3b542508be6e7190U, 0x3e63915dbc5bce30U, 0xbcab6dd4be142169U,
  0xbe7bc7913d1858b9U, 0xbe3a36873da48703U, 0x3d5f93f6be873a6bU, 0xbe60deba3c30372cU,
  0x3dc247d83e4e40e2U, 0xbeba923cbeb5950cU, 0x3cd2cb7bbd56a83dU, 0xbe66630e3dfcbd7bU,
  0xbe1094a5be45cdd4U, 0x3e0f53cbbe7d6d26U, 0x3ddb9f173de7057eU, 0xbcf3eb31bb850e8eU,
  0x3dd48772be97524cU, 0xbde3aa02be6ee7fbU, 0x3ec09800bb9a8333U, 0xbe0728bfbd4e2105U,
  0x3d860a30bd4d9d30U, 0xbe457a54bb5f38e4U, 0xbe3085fcbe0af7ccU, 0xbea06267be23a7e0U,
  0xbdcc5896bdd7f8aaU, 0xbe0a9a68be7d8af8U, 0x3ca62365bd01ee0aU, 0xbd7759543e8e466dU,
  0xbecfd580be00d595U, 0x3dc6e85fbe42ef80U, 0xbd25df9ebd271a76U, 0xbc9d2d7a3c8bf2e6U,
  0x3e344c17be854fc6U, 0xbd849f043dc67fd0U, 0xbcc574e0bca0a738U, 0xbdc4ebdbbda7e896U,
  0xbd03649abd864055U, 0xbd3932ff3dc9fd9cU, 0x3e580ed43e4dba42U, 0xbd8b1e2fbd821cadU,
  0x3e350d8fbe38ad1fU, 0xbd95d17dbd0598e0U, 0xbd990043bd726009U, 0xbdef2fba3e534f28U,
  0x3de886ed3e0e7211U, 0xbe23dc01bddd710dU, 0xbdf9d1a6be60a14eU, 0xbaedc67bbd977012U,
  0x3ba7d9c43d4a914aU, 0x3e5ffb1abd8d1a79U, 0x3e3ab0f3bdb3a5c9U, 0x3dcca48b3e2cfe77U,
  0x3c88c8bc3ba24e2eU, 0xbd3795f4bd59e630U, 0x3e118a343e52e4d0U, 0x3e0aa1e43e0c4709U,
  0x3cdb21703e46cfe0U, 0x3d28dcfcbe3902e8U, 0x3d09214cbda8dc2bU, 0xbea69c5fbd7816e8U,
  0xbe544bf33d1bb82fU, 0x3dd950293e5fbd61U, 0x3e32aa5b3dbce2b6U, 0x3ddca4ffbe129846U,
  0x3d9c051d3dcc016bU, 0xbe25b608bdbb4833U, 0xbc650447bc933f77U, 0xbe4ec6ad3bd84c7bU,
  0xbcfb620e3eb7894bU, 0xbd16ed9fbdddd53fU, 0xbcbc37bd3e3b03c4U, 0xbd963f37bd9536edU,
  0xbe0bc4b93da2ebc5U, 0xbe830efc3d97c44dU, 0x3e159eef3b995d25U, 0xbc86ade5beaa220cU,
  0x3e8fba5e3e120ec0U, 0x3cdd22673dedcc58U, 0xbc2532ae3e087f3fU, 0x3ea224e5bd74abd2U,
  0x3ecab84a3de6dd5dU, 0xbd97fb693e3920dbU, 0x3d85725e3c7d4973U, 0x3c09460d3e6782dfU,
  0x3d27cac43e50ec8bU, 0x3e2ed5ccbe129505U, 0x3de1b79d3dc1e0b9U, 0x3deffc013cc9e593U,
  0x3e536600bddfe81bU, 0x3de55c80bdaf7013U, 0xbd9437cb3dfd01f9U, 0x3e50c960beae02b0U,
  0xbd67cda83e3cdecbU, 0xbd70d7c83e512f0dU, 0xbd69108d3d0238b4U, 0xba2997edbd9f2e36U,
  0x3dd9508ebe61827eU, 0xbe2c782c3e650ea4U, 0xbd96fdb1be3162b9U, 0x3e3ce8713d871212U,
  0x3e09037a3db0ac3eU, 0xbdcb65d93d2f5469U, 0xbe02ac70bd86036bU, 0x3e0b8356bdd146e8U,
  0xbe1bf0563e284ea0U, 0xbe61344f3c11424aU, 0xbd3f086dba01bc64U, 0x3dc4b4cfbde0a92bU,
  0x3e8f845ebe1296d1U, 0xbe2a0f523e11be2bU, 0x3e3cbf603e17aa9fU, 0x3ddf620c3dd18e43U,
  0xbd288e48bc11dd1fU, 0x3e30e298bc4af598U, 0xbe3e25393d22603bU, 0x3dd9dbe3be2d98b4U,
  0xbe81fbbe3cddf03eU, 0x3dd4f5783abe8904U, 0x3ddbcac63e847e8cU, 0x3af6c6e43d7a044bU,
  0x3d76ffda3da2c990U, 0x3d246a543d6e9939U, 0xbe713d9b3dc3d4a6U, 0x3e826ec0be88ea71U,
  0x3e084ba13e23b198U, 0xbd9fb5ea3c9ff186U, 0xbdb029b0bde52d9fU, 0xbe137f42bd05034eU,
  0xbdbc65a13e7a8a00U, 0xbe1ed3b0be7b1f79U, 0x3cac38413e327059U, 0xbe173f7dbe85fb2dU,
  0x3d4df8dfbd26a935U, 0xbcd1f303bdbeaa04U, 0xbd22d4e93d0ec151U, 0xbcee0576bd1ed9fcU,
  0x3d568b39bcf804e0U, 0xbd9157a63a8af37bU, 0xbc0a0f09bcc8182cU, 0xbc1c810fbdaebc20U,
  0xbd294c233c6ad679U, 0x3cdd2a163d375428U, 0xbd8aeca63cefb863U, 0xbd903a973d28084aU,
  0x3d80b817bcdfe208U, 0xbd97b294bd74e648U, 0x3d71977bbd148183U, 0xbc14441cbd81b143U,
  0x3d4b7b88bea11cf6U, 0xbe2de7c9bdcf4536U, 0xbe7bb1b93c3eb401U, 0xbed46ff53e25ca55U,
  0x3eb98d31bef13d8bU, 0x3dd78071bdfe2e4fU, 0xbcea6cfc3da422ceU, 0x3d245a16bc4ac116U,
  0xbee99f24bdcebe5aU, 0x3da7c0be3c83f8c0U, 0xbddb722c3dd535c8U, 0x3e0c662b3e506379U,
  0xbdb4b046bece061aU, 0xbda4d64abd3dc346U, 0x3e38a7e4be1f41e0U, 0xbd147d833c0baf4dU,
  0xbd9352a4be1905f3U, 0x3e504243be428fbeU, 0xbe381ac33deeaf22U, 0xbe7773c3bda36f59U,
  0x3e395ebf3ce3c86eU, 0x3e148a92bcd7ab2bU, 0xbd62b7dd3dc49a9dU, 0xbe1cb605be21e7c6U,
  0x3c4c4285bdd84e94U, 0x3e864c383e89bff0U, 0xbe1102753e66d4c4U, 0xbdb24a6e3dbb81e5U,
  0xbca9070cbed5797dU, 0x3dfb16cebe2ddbe1U, 0x3eb084c33dae5bd7U, 0xbec7aed23c852508U,
  0xbe2c1c0e3deef0dbU, 0xbd27824e3e07b944U, 0xbda43597bd889d2aU, 0xbc98bf583d57bd1cU,
  0x3d8f0b1e3d7d57fbU, 0x3c715a123cff40dcU, 0xbccd457f3cf4baafU, 0x3e2105cdbdf220feU,
  0x3e0b1fb53ce9808cU, 0x3e3285b73dfa271dU, 0x3d9cac13bd8421a9U, 0x3d8fda00bd3b5a4fU,
  0xbd5f3c743dddefd1U, 0x3ce6ac41bde7ef0eU, 0x3c8efa2abe0a364cU, 0xbe24fed33daf0ee9U,
  0x3dc66e3abe011470U, 0x3d440c57bdeafbb1U, 0x3c8b7dd93e81399fU, 0x3e09bc483df4c615U,
  0x3d5dad9fbe019801U, 0xbe36e5043e1ac4a0U, 0x3e152eaa3d242591U, 0xbe2001d23dcac1a1U,
  0xbe51696d3df753d8U, 0x3e98279b3e78c3caU, 0xbd5085ca3e6bcbfeU, 0x3e2473103e1769e8U,
  0xbc9ac7613e0ace94U, 0x3bfef4e33e2fc267U, 0x3d408018be0874dfU, 0x3e1537c13aef4491U,
  0x3c6b40563d941334U, 0x3ce61bc03d958828U, 0xbda9e74abe4ebd50U, 0xbe32da083cb8cc5dU,
  0x3e09c44a3d3fe12cU, 0xbdadea56bcc4241cU, 0x3e6573f63ddc0194U, 0x3e6424303e176955U,
  0xbcdd8a0c3c39629fU, 0x3e4d67ebbe481b19U, 0x3e12cdc53c861792U, 0x3dcdc4b6bde4a4a2U,
  0x3e08f6343c0354e0U, 0x3dcb9f5abd741a98U, 0xbda382edbd1ba18dU, 0xbe4b68bc3dff9988U,
  0x3d941bdfbb938c15U, 0x3e2c8d3abe176842U, 0x3e450e073e13634fU, 0xbe04b464be101315U,
  0xbdc146e03e1e4655U, 0x3d68f8553d5fc2efU, 0x3e2fb8b03e0f0535U, 0x3d35a2cb3df6b3d8U,
  0x3d9f3b453b15d1e9U, 0xbde81475bb8c4e64U, 0x3dc6a6cebd0e920eU, 0x3d82babbbde80593U,
  0x3be2fe0fbe8925eeU, 0x3d20be5ebe1ade81U, 0xbd8675f4be3dd2f8U, 0x3d4b9801be3af07dU,
  0x3d3f25873e27872aU, 0xbe22d0783e852b0aU, 0x3d44d1c1bdd049f8U, 0x3c63a1123c70596fU,
  0xbdb1e2683d6245c6U, 0xbdf341253e8f0fa9U, 0x3d0751b1bd7d46dcU, 0x3cfbba3abc9ee3bcU,
  0xbc3d1d4abd40be3eU, 0x3dec817d3dd49537U, 0x3d744ce0be2e07c2U, 0x3d4adcba3e120a34U,
  0xbe25a0f3bc9cba69U, 0x3d4c8dd1bd358e2eU, 0xbc639c14bd9ddc5bU, 0xbc9160c43e018f9cU,
  0x3e3ec621bcb1fd32U, 0x3e1e8e3c3c4eb33cU, 0xbd6b92d5be3f5a10U, 0xbdbb6b49be01dc2fU,
  0x3d1f4ed93e44be79U, 0x3e04fb473e478199U, 0x3d83e2d6bddd1864U, 0xbd911c93bd9886b5U,
  0xbe3f181f3cbb99eaU, 0xbe77b017be61f351U, 0x3e886b8abebc17c0U, 0x3e26a41bbe4aaa96U,
  0x3c6c8f8dbcc39c7eU, 0x3e0a08673d23b8ccU, 0xbe8ecb7d3b4bcff4U, 0x3e4f00b73e400f5dU,
  0x3d3f24c93d907857U, 0x3ddef0523dd1e967U, 0x3e43bf82be1f8416U, 0x3e40fb363c79d124U,
  0xbbeab2fd3c7a5014U, 0x3d8b1c97bde7aec4U, 0xbe2e8dfb3cf634beU, 0xbc7065f83dada47dU,
  0x3db2f0843e62c677U, 0xbec088bdbd66f4d3U, 0xbdc6d0abbec49e1fU, 0xbdbe40d43baa80d6U,
  0xbe8797373db42180U, 0xbdad634e3bedfa77U, 0xbe4e7c8e3c17e552U, 0x3e7afc98bcd9e120U,
  0x3bd46f71bea52bc4U, 0xbdb29adabd48d0ffU, 0xbee8eb7a3d92031bU, 0xbe55fb3abdf31612U,
  0xbe6ab3c2becedb6dU, 0xbc410fc7bc05834dU, 0x3e1c73373d2e6581U, 0x3d079d94be36bebaU,
  0xbebe5109be8d4603U, 0x3e805bf0bd9ba71eU, 0xbdb5e535bd53eddfU, 0xbdff2016be07df89U,
  0x3e29695fbc44ca6cU, 0xbd8e1a613daf2757U, 0xbe3d7ab3bd380b67U, 0x3e1bd3cebccc5f53U,
  0x3e5212c2bd6ccfbbU, 0x3cafef36be24e1deU, 0xbe6dc3a5bddd777bU, 0xbe08ab7a3e2b175aU,
  0xbe4e9461be9232f5U, 0x3e117e4cbe6ee9c6U, 0x3e695358bdc39354U, 0x3e472acfbe352202U,
  0xbeb79f523cdc67d1U, 0xbdbb24bbbcf68f0dU, 0x3c95240cbd3355a7U, 0xbdc8c9193e0e8076U,
  0x3e054924beb7cb9dU, 0xbdb279d73da15dd1U, 0x3b2dc1403e1491fdU, 0x3dec9d113d9b93b7U,
  0xbe0d22c2bc8106c3U, 0xbd1f0e3f3b14ca91U, 0xbd8a34913e19d7b0U, 0x3dad6ea83d477af5U,
  0xbc30af44bdbf6e83U, 0xbd951158bd83ba63U, 0xbcc28ce13e0ca69aU, 0x3df0c538be429524U,
  0xbea62d623e042a9bU, 0x3e0b2a8e3c679fdcU, 0xbd7903a53e88c4adU, 0xbd1372793d9a7e44U,
  0x3c0b416e3e7d20daU, 0xbe23f4f3bd83e7e4U, 0xbe2559fc3dfbd9dbU, 0x3d1102c2bce37caeU,
  0x3cfbad62bdbe7627U, 0x3c5d70ab3da0e2cdU, 0xbdeb02803e5e1d5eU, 0xbdfc3565bdf4934eU,
  0x3b094204bd42aba1U, 0x3be9ff573ba4c429U, 0xbe3c7e53bda46c42U, 0xbe811052be515e50U,
  0x3dc13b3abdedd2f2U, 0x3e5866e63d78cfbfU, 0xbe76407cbdc748c2U, 0xbc26562f3e2ebc68U,
  0xbcdec852be3cb49aU, 0xbd89b470bd018b1dU, 0x3e00db633d689bc2U, 0xbe937ff3be533b1eU,
  0xbd8165e73e85e2b2U, 0xbc440c5f3e872d00U, 0x3e126b2fbe25c023U, 0x3df43b0cbd7102abU,
  0xbdfc9b64bdaf6b68U, 0xbe40429f3e5a4f4dU, 0xbe00d7463d663495U, 0x3e8f6d23bdb2b8eaU,
  0x3e0995a3bb92f924U, 0x3d8c2b25bdfc37d7U, 0xbd81867cbd298bddU, 0x3da3265abd0fc8afU,
  0xbe214102bd6e6305U, 0x3b6ea3d63dbea281U, 0x3e08ba903e1c020dU, 0xbd5fae2e3e47b703U,
  0xbe258a6b3b737dfbU, 0xbdb4daea3e75bbf1U, 0x3e3f8b14bdd07b77U, 0x3deb4a023dc94372U,
  0xbd5668b63d83b188U, 0xbdbb4e4c3e083823U, 0xbb31a9d23d9c39dbU, 0x3dbf85393dc80f71U,
  0x3ce9b41f3d825372U, 0x3ddaaf85be6b7417U, 0x3d6ced06bb99598bU, 0xbdc67dffbe215470U,
  0xbed0c1103e0ce15aU, 0xbce2f42fbd2b535bU, 0xbe541ff3bdac3bd9U, 0x3e13ab423e15903aU,
  0x3e0cad57bddffe97U, 0xbe0d222c3de14e6fU, 0x3e1c8d803c9712e1U, 0x3dd99193bd1e2c4dU,
  0x3dde82eb3e0cd4d6U, 0x3e20a389bdc2131eU, 0x3e093478bda084b5U, 0x3bdcde193da39851U,
  0x3e1374f7bdcb3e15U, 0x3e0e421e3e619b79U, 0x3e1a68433e560a8bU, 0x3df6cfc6ba91e156U,
  0x3d572f57be1680b0U, 0x3d6a5587bd630437U, 0x3abd3dd33d2b2506U, 0x3e028dc93e5ea91bU,
  0x3dcd65e33e2f6757U, 0x3d1be9d5be0f18b5U, 0xbded12ecbd201914U, 0x3dbc310bbd300437U,
  0xbe83e058bd9eb6abU, 0x3d7d5380bdfaa879U, 0x3e02de0dbe0d33c3U, 0x3de791b9be069577U,
  0x3cacfea7bd1d2a91U, 0x3d0104bbbdc36891U, 0xbcc847083cac275cU, 0xbe0970cfbcf171eaU,
  0x3e32c5743e47b2c9U, 0xbd9b37ff3e249bfdU, 0x3d9ab7a33a6d13b1U, 0x3e7c0e8cbd0448acU,
  0x3e20c19fbe574762U, 0xbdc5f6703e86b5feU, 0xbe43d4633ecb838bU, 0xbe79a9dc3cb471caU,
  0xbca32a0dbd49a01aU, 0x3d383bbc3e16071fU, 0xbde7a9983d626353U, 0x3d2ec7603cfa4baaU,
  0xbe6f90223dd6f5a5U, 0x3e270af93e0e808cU, 0xbe19f7703e4f0e05U, 0xbdd041063e2f0433U,
  0xbafe11adbd69e5a6U, 0xbdf3c9693deb5747U, 0xbe7cd19ebdb5cb5bU, 0x3d070f18be1c0eb0U,
  0x3e5bbf5ebccef6beU, 0x3da2ea263e7a45b1U, 0x3cb58068bdff09bcU, 0xbe895c603dd405baU,
  0x3c75bccf3de65beaU, 0x3e1ff58dbd801e9eU, 0x3d96ebfebe1d74feU, 0x3e257b843e3ac7a8U,
  0xbcec9b81be39e8b3U, 0xbe84a5f0bd37fd05U, 0x3e2aec103d5eeef8U, 0xbda4d7803d93ffc1U,
  0x3d791e44bd7f1a6fU, 0xbd585d203e0899c0U, 0xbc6557033dd1bf6bU, 0xbe1ded9c3dd64252U,
  0xbdd04cb63cc5227dU, 0x3d12c36f3cdb0acfU, 0x3bd52a9bbd78b53bU, 0x3d2e5659bd23bed7U,
  0x3a2b35893ca6994fU, 0x3d7ac506bddc62e4U, 0xbd8279e23cf8af0eU, 0x3d9012cdbdff64a5U,
  0xbdee23e1bd90d1fdU, 0x3cbfbccabdc98e51U, 0xbe77c102be0468e3U, 0xbcb190eb3e25965cU,
  0xbdb2dc4bbe344eb4U, 0xbdf92fcf3ca638efU, 0xbda98d9d3c9e85baU, 0x3d4319923d5bb11fU,
  0x3e82ab8f3e232e28U, 0xbd9f6094be80b9e9U, 0x3cdbd85bbe949113U, 0xbc0897b2be03fd25U,
  0xbe9886593e15ed8dU, 0x3d6497fd3e1d88edU, 0x3e18bdffbe238b46U, 0x3e342e23bcf4b13cU,
  0xbd87f2393e27e81dU, 0x3e692476bde6cb3aU, 0x3db4dafa3e01a9fbU, 0xbe02f310be1cd25eU,
  0x3d8a4ccfbe4a49b9U, 0xbcf6f674be1aa73aU, 0xbe83b876bbdf2dd0U, 0xbda0d9823d4b0fe8U,
  0xbd22c58cbe6e90eeU, 0xbd95b8103d1c4d3cU, 0xbe8a02c23b389367U, 0xbe366ec9bde1c809U,
  0xbbd9d2a5beaf9c7eU, 0xbe359c4ebe867980U, 0x3dc9a296bdf43ea1U, 0xbe25c821be1f53dcU,
  0xbec40a97bd3d6acfU, 0xbe9a42c3bde79c00U, 0xbe0ea5d1be1f9ebfU, 0x3d57dc643af381eeU,
  0xbcde8c64be6057f3U, 0xbe62fbaebd59d5f3U, 0x3d7a9fb3bd585371U, 0x3d9a7b95beb984b4U,
  0xbd952d46bdf60496U, 0xbe1eb32abc4340eeU, 0xbe42ca2c3d1c3e78U, 0xbcfe5fd8bda3c700U,
  0x3d1ac41fbe3f2c5cU, 0xbde8d1b3be1858e3U, 0xbe3ced243ddd8650U, 0xbc7614c53bf9f784U,
  0xbe4a01893e0a8fd8U, 0xbd018b3ebe43e88bU, 0xbe36b17f3cbf1c22U, 0x3e15ec0fbdf61b22U,
  0xbe0eaf8abc2725e2U, 0xbd114903bc435809U, 0x3d18b2633ba4906eU, 0x3e1c355bbd88cbb0U,
  0x3e164b813dd4c9aeU, 0xbc1d21ea3d6938a5U, 0x3dee0c333e2dbed8U, 0xbe1a593ebd6237b8U,
  0x3d3911cc3e06483eU, 0xbd77c1343dbf2068U, 0x3db9e76b3c46ec0dU, 0x3e8453bf3e5cfc02U,
  0xbd5a4adebc9bbc72U, 0xbcd3a0103e221e99U, 0x3d5b1b7a3dd344fbU, 0x3d379ee7bbecee04U,
  0x3de814203d01f16bU, 0xbd8a0b08bcf671efU, 0xbe3fb2323e12bc3dU, 0x3e34d6c63e37b889U,
  0xbdd7d3e23cf0095eU, 0xbdff7a703e314ca9U, 0x3d3a4b4d3e86dbd1U, 0xbdd7a718be03992eU,
  0xbea10c1dbcf2d9e5U, 0x3ce6cd6f3e323ae2U, 0xbe254b603da53da0U, 0x3e63c8773e0ec4a3U,
  0xb9a4ed2a3e525a71U, 0x3d80869b3c0abafaU, 0x3e74fa913daa5ba9U, 0x3e2a373dbc5c2cd1U,
  0xbde7c12b3e905c54U, 0xbc3aea333e0205f4U, 0x3cc04e473cccb74cU, 0x3e3b46ac3e2bab1cU,
  0x3d3b1563be299f01U, 0xbe2b56e73dcc00fbU, 0xbdbce60f3d811449U, 0xbe0fedf3bdfc33feU,
  0x3dd0b15abdae2730U, 0xbe132c0cbbca7c60U, 0x3df0117fbd950785U, 0x3db37877be80526cU,
  0xbe561e87bd9157f6U, 0x3eb6a7603d58459dU, 0xbc3f990a3e04ae77U, 0xbd8466843d31b548U,
  0x3e3ecb5a3d7de526U, 0x3d9df970bdc2f078U, 0x3ce9097e3e0161e7U, 0x3caa43843e4f22e6U,
  0x3dc9702abe592b25U, 0x3d936c0dbe83c518U, 0xbe6842843e33b3b8U, 0xbdfff4f13d13508cU,
  0x3bca1cddbeb42c0fU, 0x3e21c949be0e7110U, 0xbb95b0a7bc1e9f4fU, 0xbe771805beb32ee3U,
  0xbe94d87ebe94bdf2U, 0x3e8e384a3e764e69U, 0x3d41af9a3cbf42acU, 0x3db7e9f1bd655b3bU,
  0xbdac1e14be12387cU, 0xbe068cb8be1d539eU, 0xbc1296763c971726U, 0x3daaccb1bb7bd73eU,
  0x3dd9b302bdbebfccU, 0x3d8a6fa33d7eadecU, 0xbcc034d63c36ae0cU, 0x3e4fc80ebd9585b9U,
  0xbc89d9bb3e178d5eU, 0xbda6e0c53db9b71cU, 0x3c6823f93e24205fU, 0x3e15ae873dba225aU,
  0xbcc2932abda22627U, 0x3dfa3b4ebcc3be2fU, 0xbde4399ebdc848deU, 0x3d8511dd3dad0a04U,
  0x3cf6b4ca3cdcd51bU, 0x3d9b25943d749fb7U, 0x3c7ffb753cb8d2feU, 0xbe1bef50bda8b00aU,
  0xbdf335e7be2c5fb3U, 0x3d1315c8be53ad9bU, 0x3e783598be04b471U, 0x3e48e1f6bda15d56U,
  0xbdabb6d4bd446db6U, 0xbd39a92ebe621595U, 0xbe1935333b92574aU, 0xbe7d11df3e028bc4U,
  0x3e4388f0be41a9e4U, 0x3e48b68bbd70aeb9U, 0x3e4bda3fbb056b9fU, 0x3d73e8ffbd63aea6U,
  0xbe0311413e84a5bcU, 0xbe451f13bd25a571U, 0x3d26a0b2bdb876adU, 0x3d9b79d1bc3e8e37U,
  0x3e40faa4be754c8eU, 0xbdf388fb3e282598U, 0xbe6344323de42dbaU, 0xbe592207bd30e22dU,
  0xbe01d8b9bceccdb0U, 0xbe0b46efbe702432U, 0xbdbedd9a3de70f1eU, 0x3e0cddc2be318b5bU,
  0xbe79b6a4bd041d7aU, 0xbb53cf53bbae3a2eU, 0xbe167a883dfc2ff2U, 0x3dcc28953e137dd0U,
  0x3da0723a3d3fcd0aU, 0x3dc74a603d95a7eaU, 0x3d60de683dc450d7U, 0x3d153378bd984badU,
  0x3df11adfbde26a47U, 0xbe06fdf63e21ba7bU, 0x3d8a81c6be2f1552U, 0x3da8a9ccbd879b51U,
  0x3dff41a6bd903b85U, 0x3e1a33303e062fb6U, 0x3e042386be1fcdf2U, 0xbe74b8053d4a2e52U,
  0x3d652351be16889fU, 0xbdd92fc53d1dc7feU, 0xbd5e3c953de72c1fU, 0x3d9fd1413e05893fU,
  0x3e8a06d53dcd30bfU, 0xbd6adc633d09c2ecU, 0xbda9ac89bdcfb6eeU, 0xbe55586abe0388b7U,
  0xbdc6b5de3de9fc32U, 0xbdd64fd03e54e1f1U, 0x3d626f87bdbbfd70U, 0xbe8acc863e25c490U,
  0x3e1b6936bc4ac3f1U, 0xbe2ab4213dac9d3eU, 0x3def248bbe2e4718U, 0xbd0994c53e09adbbU,
  0xbda4672f3cc5c01aU, 0xbdcc0b8cbe495881U, 0xbe160b38be26b546U, 0x3ca8e11f3dcd0a68U,
  0xbd3b2a77bd44686cU, 0x3dc355a83d49bed7U, 0x3d8ff9483cb84bcfU, 0xba9af03c3e337d14U,
  0x3dc3ffbe3d6dcc7eU, 0x3d9539ccbcc60f2fU, 0xbc1c41cfbe19e1f2U, 0xbe01b4bfbdc67593U,
  0xbd35b8293e0b46b8U, 0xbe1e56393e3b13f3U, 0xbc46d534bcc0715dU, 0x3dd97507bd792ab5U,
  0x3e3a37543c83df40U, 0xbd0a41c8be81352eU, 0x3e470b7bbe6f02edU, 0x3e0348e8be8d2b56U,
  0xbe7495ac3db98903U, 0xbe016d2abdda2131U, 0xbdb6c8713e02d90dU, 0xbdfb1cc23d671477U,
  0xbe4e3b41bcd8942bU, 0x3d9d69783df9596fU, 0x3e29c9193ec804e1U, 0xbaed73003e0a3a66U,
  0xbc8644ee3dcab2f8U, 0xbcc71fd5bd43e5e8U, 0x3deed25fbdc5b3eeU, 0x3dd495cc3dab2e3fU,
  0xbe7a848fbd555bfbU, 0x3e59974e3d355ad2U, 0xbcf244753e090498U, 0x3e17cfefbe791fcbU,
  0xbe8934d23e008dedU, 0x3cedf6033e17a01fU, 0xbe0324c8bd69ba3bU, 0x3dde576a3bf81660U,
  0x3dd790febe7aa156U, 0xbdbdd4ad3d1efe8cU, 0xbd8ff92cbdb9eea2U, 0xbe6910ce3dd8b0fbU,
  0xbe50baa73e024e3eU, 0xbc0573313da96a86U, 0xbd8035ff3d99ec99U, 0x3ded03153d7ee396U,
  0x3b887189bb713c26U, 0xbdb851edbd31527dU, 0xbe32c585bdb8bb2fU, 0xbcd45fa7bc4da6b8U,
  0x3e2d493cbe7df5e7U, 0xbcaea49e3d2278bcU, 0xbd9c9546bd17a1f5U, 0xbe12663cbd37ec43U,
  0x3cba82123e22e911U, 0x3de867003e784ef5U, 0x3e0ded1b3dc79fd2U, 0xbd414949bdca3e3dU,
  0xbe9f3b0cbe412693U, 0x3db182d33e5cb4dfU, 0xbdcb00813dd557f4U, 0xbc2713f83ddb2473U,
  0xbdd67ce83b9d33fdU, 0x3e09018a3c9d9f52U, 0xbe2017a73e6bf7e5U, 0xbd6ad9c6be296894U,
  0x3d5631d13caab3f7U, 0x3e00a822be193a24U, 0xbdc1898ebdbd74d5U, 0x3da86f963e34e2b0U,
  0x3d25dc07bda5329eU, 0xbcf2b26fbcf7b6f6U, 0x3cae0bef3e14cbd2U, 0xbdb0f614bdd652c1U,
  0x3df8963ebcf74d86U, 0x3d03f959bcbb4f3cU, 0x3e0c80c93d3d770eU, 0xbcb324fbbe49054eU,
  0xbe5d84ddbdc5cd19U, 0xbb7d99f43ec92ffcU, 0xbe3e0d8b3e3dfbecU, 0x3ddc25853ded14a3U,
  0x3ba5a07bbdc8b337U, 0x3dde005b3d9bd4d1U, 0x3d0949d23e042550U, 0x3bc54e31bd430e9dU,
  0x3dec15c5bd72eaedU, 0xbda2e7ca3e0c0414U, 0xbdaa8b9a3dcbfb22U, 0x3e11f1eabe0f97c9U,
  0xbc61b79c3e2ba0c1U, 0xbdd419163dbb3797U, 0xbdc173be3dca3907U, 0x3e3f1248bdd526e1U,
  0x3e2826ccbdafe537U, 0x3e729bb93d0c7700U, 0x3dc5ac2c3e7a42f0U, 0xbce510fd3e19fec8U,
  0x3d9167f9bcd063f8U, 0x3df35f19bc6c93fcU, 0x3e05cd003e0bbce4U, 0xbe1d71023d5fe18aU,
  0x3e4543853e1f7340U, 0x3d5c4e573e761dc9U, 0x3dd76cf5be51fe8fU, 0x3e586f6bbdc32ca9U,
  0xbe8df9173e385f1fU, 0x3d79bfae3c926cd6U, 0x3da19dbebddc9865U, 0x3d87e6a03dd7d124U,
  0x3d6e6f863e262e85U, 0x3d889906be3e7157U, 0x3e7d3265be146ad8U, 0x3cb653f8bcda30c7U,
  0x3e817a283e68efeaU, 0xbd5d683e3e19b039U, 0xbc8770b43db67f5fU, 0x3e538f4a3e042924U,
  0x3caee07dbd9a7cf3U, 0xbe191b9e3dbb58f8U, 0xbd6df9623e07b10aU, 0x3d0720a8be13304eU,
  0x3e7ef6cf3d14f33dU, 0x3dfc7e0e3d284a91U, 0x3e8e69ba3d101aa0U, 0x3e21a06d3e19f2e8U,
  0xbd84ea81bd2938aeU, 0xbc92f85e3e2342d4U, 0xbe0719ea3e042681U, 0x3e055c7e3e19594bU,
  0x3c760eabbdab88a8U, 0x3e22e7593d1f845dU, 0x3deb640239f64913U, 0x3dab3f8f3c8b3a80U,
  0x3e0aea823e0825c4U, 0x3d754cd13e463364U, 0xbd680b1abd3f79a5U, 0x3e521f7e3d10edcfU,
  0x3e9849b23d7032c4U, 0xbd1af842bd810760U, 0xbe0ec982bdbf76e9U, 0x3d8428f83e28ed94U,
  0x3c4b01dcbd60eee4U, 0xbe401e74bdc3db1bU, 0x3e3d4a2fbca3b767U, 0x3e2191f13db94fd8U,
  0xbdc091c23e318f00U, 0xbd7df1053debda6eU, 0x3d2c2c533d814025U, 0xbe1ff24c3db29feeU,
  0x3ccc21d1bd56f8f5U, 0x3de387a3bc634ebaU, 0x3ea01cdfbe279731U, 0xbc8ae482bd6d9c77U,
  0xbdfd78153e064cdcU, 0x3de3b027bdeac100U, 0xbc8822b53e0aee51U, 0xbde646953dbac3d5U,
  0x3db4a0633e5fef95U, 0xbe8af093be9dcdedU, 0x3e699814be03e1aaU, 0x3db278ab3d838fc3U,
  0x3e4b2a02bd728366U, 0x3d18a739be03f513U, 0x3cea836bbdd1e529U, 0x3e7b32953dd6266fU,
  0x3cb64467bdbf9a3cU, 0xbc8d76eebe1b3994U, 0xbe10d1b83e0e7c8aU, 0xbca84b76bcd26c5eU,
  0x3dd7ccb3bd4626cdU, 0x3caf9aa9be38c2eaU, 0x3cac9d093e2d2572U, 0xbcfa25053dd19035U,
  0x3d4273f63d9248fcU, 0x3db3425d3d306917U, 0xbe0a5a4abe165bb8U, 0x3d96dd3ebe134893U,
  0xbdded5bf3b7507eaU, 0x3dea99ecbe11d5c4U, 0x3c3745c83d33f45eU, 0x3d71c5a83da8a789U,
  0xbce0de27bade748bU, 0xbe09fe5abb81324aU, 0xbd0d430b3d626e5dU, 0x3d325054bdf9664bU,
  0x3e44f38b3cbd22b0U, 0xbe0da0d2bdb3919fU, 0xbd85f8763d7d3b13U, 0x3d9cf1ed3e0950eeU,
  0x3cdf2f00bd2b5063U, 0xbd6ee51cbe18dda2U, 0xbe18dec3be430114U, 0x3bbb1440bda50a3eU,
  0xbbf30a01bdcea550U, 0x3e02c47bbd3191b2U, 0xbda9f7afbd795a1aU, 0x3c94252fbd90cd6cU,
  0xbd8b5a07be053394U, 0x3cda035fbc8fbe1bU, 0x3be6b932be6fbac4U, 0xbe572bd8bd46ecc3U,
  0xbd85a444bd3e128fU, 0x3e0ea477bd7e4929U, 0xbe3505f43d83dc59U, 0xbd99139bbd509953U,
  0xbe0f84723d2ff28bU, 0x3db5f4933cfc4360U, 0xbdec66dcbe3d593cU, 0x3ca2304abd526e43U,
  0xbde4d4b83d8ff383U, 0xbda5b11b3dd057c7U, 0xbe0890cebdb9ad25U, 0xbc93fa283d6e894eU,
  0x3e7632d0bb9cfc28U, 0xbda91cb9bdd3a38eU, 0x3d85e519be0e1a6eU, 0x3dc8b299be201908U,
  0xbebf8334bd1f231bU, 0xbda7e9093d8d0a6cU, 0x3e16d6713e03a861U, 0x3e3600443e102955U,
  0xba8cb6753e811bfbU, 0xbe5b71c2be86f8a8U, 0x3df5f145be10bc7eU, 0xbdb6ec423e16aa1dU,
  0x3d15ea883ce9588cU, 0xbe19e70fbe38cd6fU, 0xbe971cb23e2eb848U, 0x3b9608a13db1f928U,
  0x3e33b7c1be288230U, 0x3df8f567bce3c6a3U, 0xbdfa869e3dcf05c9U, 0x3e249bdcbe0cb1aeU,
  0xbea9e3e83d9914dfU, 0xbe10fa23be3c5c52U, 0x3bec84f8be0c017aU, 0xbd11b753bd0cc52cU,
  0xbe2b2a673ccc0e39U, 0xbca58e0b3dd9332bU, 0xbd423a553e603779U, 0x3dbc1ce53df2ef64U,
  0x3e2145be3dc4c1e0U, 0x3d8f7f17bcce39a1U, 0xbed4dc75ba4026c5U, 0x3e4aeb40be29cc1fU,
  0x3e13ff75bd444c3aU, 0x3d4da7c83d7ba9efU, 0xbe5a989cbdd7d202U, 0xbe55b286bcdf53edU,
  0x3e4560d13c8aacfcU, 0x3e4a653c3e3bf3bbU, 0x3b62a20e3e1760c8U, 0x3e575c2abe142345U,
  0x3b625f7d3cace7d8U, 0x3e9e9ff13e25d539U, 0xbdac4cf8be2ea536U, 0x3d1c671c3de2316aU,
  0x3c9ef5b7be69d7cfU, 0x3df337143bf8e292U, 0xbc552288bc2b9ab0U, 0xbd0dd9f03d581b8aU,
  0xbe802f5cbd62e452U, 0x3d6dd6293e107d77U, 0x3dd8d4a3be35a74eU, 0x3d8d18063e16e248U,
  0xbe6ff6d43e48e648U, 0x3e2cb65cbdb69e55U, 0x3d4406383e1c4f27U, 0x3dd663763bd07798U,
  0x3e1570be3de2037cU, 0xbe40f8e3bcaae904U, 0x3d3229e1be705eb5U, 0x3dae00d1be11e345U,
  0xbe97ddd33e00fc48U, 0x3de41b30bb936061U, 0xbe92b99c3e10390fU, 0xbd4cf0afbd40b745U,
  0xbcbefa9f3d8ede36U, 0x3dbe9d2a3d4480d4U, 0x3c7e256f3d60ca8cU, 0x3e2e78453e21200dU,
  0xbe56eee33cd8bcc4U, 0xbd7ea5eabe8ca025U, 0xbdb5cc753e246d46U, 0xbd8eaa0bbda7eeb5U,
  0xbe36754b3c742027U, 0xbe6ad00ebd5fa44eU, 0xbd7ffc89bd9118a9U, 0xbc1f08dbbd0a6224U,
  0x3e20d6343d76243bU, 0x3c8f90e3be54c667U, 0xbe5171ab3e45a75eU, 0x3d552ba83e428523U,
  0x3d1b91fabe11f237U, 0x3dafd6743e5c4785U, 0xbe49cf1c3ca3df33U, 0xbdd13308bd6344b5U,
  0x3e5504dc3ca9467eU, 0x3e173cad3d602508U, 0xbe6c32073dec06b3U, 0x3ecb489b3e18d0b1U,
  0x3d0658d03d14d10fU, 0x3c63bbe13e1a6d58U, 0xbdbd57963de28d87U, 0x3dd6d3f43d9f43e6U,
  0x3e6b06ed3dc72975U, 0xbce59988bd6bd821U, 0xbe0415b9bdc601baU, 0x3af622a6be1a8b34U,
  0xbe70ef943e227469U, 0xbda54c33bd021021U, 0x3dd291fbbe3c7327U, 0x3e1eaba6bd0a79d8U,
  0xbda6eba63e0ab70bU, 0xbe29863ebdbd995dU, 0xbbb89a7d3de7f56cU, 0x3e209d183e485147U,
  0x3e4b1f0a3e25f850U, 0xbe9e2c72be7abf33U, 0x3d2f6c0abe9f4830U, 0xbe1576b8beb4a423U,
  0xbec4ee213e031575U, 0x3d9f7366be3c6ff6U, 0xbe261fb63da63694U, 0x3e36accbbda25016U,
  0xbe3d38193dde8255U, 0xbe0ff2f0be0bf663U, 0x3dcc9a493dbbff52U, 0x3e092ee2be2c3c09U,
  0xbd6d77003cf63debU, 0x3db013ba3c9f5285U, 0xbe4600f3be246b6fU, 0xbcb8fa07bc9b0e8cU,
  0x3ca3d071be03e932U, 0xbd89f275be392f6cU, 0xbc08934dbda52019U, 0x3d97821fbd6a8511U,
  0xbe21eaebbd9b1e1bU, 0x3e4ee45fbdcaafc2U, 0x3de2f7ce3dea0f56U, 0x3d6b25f2be77fb22U,
  0x3e176294be085e08U, 0xbdb91111bdae121bU, 0xbe199144bb43316cU, 0xbde188843e294300U,
  0x3e937c9dbd7e8e54U, 0x3db7824bbdc84327U, 0x3e62a4083d982260U, 0xbe0dabb3bd572328U,
  0x3d24b75cbe3f3626U, 0x3d9f0f2f3e64bae7U, 0xbe1888bdbc9a8c5dU, 0xbe0428b43e1ba04bU,
  0x3e8d5f9a3db775cdU, 0xbe0c9d8ebd94506bU, 0x3dd15c233e00b4daU, 0xbdae0d32bbef4be8U,
  0xbe3640c93defa2afU, 0x3e0dbc34bcd5a393U, 0xbe0aa0203d45333fU, 0xbddd4c8a3e17d3bfU,
  0x3da85d183d8a195cU, 0xbde06253bb92cdcdU, 0xbe0ed6eb3e14846dU, 0xbda26a6bbe330b7dU,
  0xbd024183bd03bfabU, 0xbd90d2c6bdda9177U, 0xbceb8507bd0fc823U, 0xbd0893db3dafa14aU,
  0xbbd44e64bd091d4bU, 0x3e12c5c4bdd0d620U, 0xbd5e6e073ca81e4eU, 0xbde847f43dcd897eU,
  0x3b37eafcbdc3531dU, 0xbdc3d5a03e06c1eeU, 0xbd9e394abdef3937U, 0x3c2b8d0abdc6149fU,
  0xbe1829aebdf4ee61U, 0x3e0a52d0be31467fU, 0xbd644cf13d307035U, 0xbe4e08a63db06368U,
  0xbce567fb3df59b31U, 0xbc5f90d73d448564U, 0x3e14cf60bdaf9321U, 0x3dc0dc333d81ffa1U,
  0xbdad9e08be513506U, 0x3e0c4a053c5299cfU, 0xbcbe886fbcc95810U, 0xbe49a876be2e8566U,
  0xbbff1aae3d8c4ca1U, 0x3d49c590be3312cfU, 0xbe21a097be347058U, 0xbd40d0923e1ae045U,
  0x3cd4cbc0bde22fb8U, 0x3e291d82bdbcdc38U, 0x3dc47a16be249d06U, 0xbdf787a6bd39bfd6U,
  0x3dcc5039bdedd627U, 0x3cd0794d3cd15952U, 0xbc871c743d0f7a86U, 0x3e20a9f23c1f7f19U,
  0xbd9cb38ebc26e0eeU, 0x3ade6b3d3d6798b7U, 0xbcf4ff79bc8cb84fU, 0xbdc43374bd25ae76U,
  0xbe2995febc101d58U, 0xbcbcdf7abcda041aU, 0x3e2ac3babc56c613U, 0x3dc5ea873e16654bU,
  0xbe9d851a3e1b0363U, 0xbd8329913e3c2d96U, 0xbe6960cbbdc54166U, 0x3e152384bd92dbfdU,
  0x3cde3a963e1b8bbfU, 0xbd0225d2be8b2008U, 0xbbd6cc40be50789fU, 0x3d94f240bde944ffU,
  0xbdcb92dd3e0c64e5U, 0xbe02174cbd46c4f2U, 0xbe90625f3d64258dU, 0xbdc4929e3dca459aU,
  0xbe5810043d882c0fU, 0x3b265ffb3d25d463U, 0xbd80da313eb4a148U, 0x3d07cc2ebdbac50fU,
  0xbea316243d8efbedU, 0xbda8d8d03d1b489aU, 0xbea1c3363c31f78aU, 0x3d374977be312a8fU,
  0xbd80584c3e21953aU, 0x3d078abbbde131baU, 0xbe1a4b41bcd900c2U, 0xbe0ecb19be9cada5U,
  0xbece9fc03d5abad8U, 0x3d5de9f43e350959U, 0xbe9b5634bd537343U, 0x3e1aac1fbe02b894U,
  0xbe98739a3d15cdcfU, 0x3d4a82053e4519abU, 0x3dd164f93daf7de7U, 0xbaabba2e3dc72908U,
  0xbb5886bcbe07551cU, 0x3ce4283cbd691854U, 0x3d256de8be239d4dU, 0x3d04a501be909967U,
  0x3d49d3883cefe349U, 0x3e7cae133e344bfaU, 0xbdb689433e717744U, 0xbdbba9c23d36a920U,
  0x3d9d3185bc8b15cfU, 0x3b9e67a1bd0a1017U, 0x3e2602033ded2b4bU, 0x3db55dd1bd1c048eU,
  0x3c5447653e1cd8afU, 0xbdea8363be8dbe69U, 0x3ddff67bbdbc7269U, 0x3d4829d13d95b348U,
  0x3d4b038cbe440c66U, 0xbc84a96f3dc9a160U, 0xbe181cca3d3f94e2U, 0xbd9534c5bd0b0fecU,
  0x3da4383fbea3185aU, 0x3e6b7b373e32e32eU, 0xbe827c8d3d9dedf3U, 0x3e25c93f3dc2ae40U,
  0x3e7bd0543d6b18e2U, 0x3dd5d8133cb91ad8U, 0xbd4837edbe2cf2f9U, 0x3d90d4363e52beceU,
  0xbd02b4fdbe4e15e8U, 0xba8b90adbe9277f2U, 0xbe4c1b9bbe97abdfU, 0xbe6e980e3e1be9d3U,
  0x3e6e7c14be7c376cU, 0xbcbc492abe585e56U, 0x3c6dc02f3c9c294aU, 0xbcff8c343dd8ba01U,
  0xbe832fd7bdcaa1f5U, 0xbe059f55bd90ccfcU, 0xbe33b0dbbe20a0a5U, 0xbdda5ba4bdecbdcfU,
  0xbdbb55cd3c034e4dU, 0xbdb3af04be0555e9U, 0xbd1dd109be204de7U, 0xbaec1bb73d9bd9feU,
  0xbc96c2cebe37b715U, 0x3e212a9fbddfa2b7U, 0xbdfadb95be442b0fU, 0xbe0c32b13e12c4fbU,
  0x3d1c500dbe6fa33fU, 0x3d71cb42bebdefb6U, 0xbe12f32ebe29b22eU, 0xbdaeb121bd87825dU,
  0xbe1044fc3e344a8dU, 0x3c77ec5c3d1b3b5dU, 0xbc29fd153dd34f81U, 0xbd696e4d3dd4a2dbU,
  0x3de95db6bd90db36U, 0x3e17d40b3bfadf3eU, 0x3e4e7ed2be1daaefU, 0xbe4510f3bdafdc97U,
  0xbe216bcbbd065f7eU, 0x3d73638cbd985c16U, 0xbd8a439dbe4e8b1cU, 0xb99e96023e1206c3U,
  0x3da3e116bd15ecceU, 0xbd93a93bbda57e55U, 0x3dcd24bbbdefb3b2U, 0xbb3d3eccbe0027c4U,
  0xbde2ae67bda759faU, 0x3c5769513afd6675U, 0xbde440813c96ded8U, 0xbdeb4f303d5a3f6fU,
  0xba1ecca0be131c15U, 0x3e17be583c485868U, 0xbe2837e7bd981d08U, 0x3e0c59f3bd00ea42U,
  0xbcd8bbf1be07da0dU, 0xbe085d13be3023d7U, 0xbdcddc14bd642fa3U, 0xbe03d7f23df98bb0U,
  0xbe06f82bbd8a1187U, 0xbe120f4ebd23069cU, 0x3de53ca1be2ecbe0U, 0x3d95b0973e12c851U,
  0xbd456886bd231e6dU, 0xbe411c183d190fedU, 0x3da24394bda7303dU, 0x3e280007be29e906U,
  0x3d0c708bbd6772feU, 0x3da173e8be0e5fe9U, 0xbdb7a7123d240660U, 0xbcb9fed7bd86ab14U,
  0xbd1ead47bb1f74c3U, 0x3dc25f5bbd65c245U, 0xbd803fb93bf74a50U, 0xbdeacb6abd15fa66U,
  0xbe10c3083c162475U, 0x3d42f8fe3bb9db81U, 0xbdcb8ef93e1bc5bcU, 0x3cb2a44f3d3be5fcU,
  0x3d51e983bd2d28c4U, 0xbe37318f3b29f783U, 0x3c89191dbd3d55eeU, 0x3c47ca523d3a76bdU,
  0xbd4748d23d49739aU, 0x3db2063b3e0135e2U, 0x3daf26c6bcc9e857U, 0xbd43b2c2bbc7eb7aU,
  0x3d0d79c23e3d2378U, 0x3c5e12513e705df2U, 0xbc8aa0383d4ff158U, 0x3d662c6f3dd1eccfU,
  0x3d8a7545bd576995U, 0xbdc3c65b3cd84180U, 0xbd35caea3d840ecaU, 0x3e269f323cd641eeU,
  0x3e3162013d623d5aU, 0x3e3ce0efbcb9f4a5U, 0x3dd4ac9a3e3ad161U, 0x3d30490bbdc8277eU,
  0x3ddd3e023dddda5dU, 0x3c0084443e4425a0U, 0xbdc1bc01bd0dfe11U, 0xbdbb24d73dcdea13U,
  0xbd1459113d9e7cb3U, 0x3d8f3411bd8028f7U, 0xbda4a7a73c1a8d42U, 0xbd6a5ddb3da85a74U,
  0xbc85baf13e4f4d8dU, 0xbd51f9153daa3974U, 0x3dc0c9eebdf6505fU, 0xbe5eb9783d842eefU,
  0x3d2cb51e3db8f55eU, 0x3db7bd8abe2edbbcU, 0x3e500169bcdfc989U, 0x3d3d6685bd8b589bU,
  0x3e0e8400bd1bde29U, 0x3df83730bda4efe4U, 0x3ac77bb0bdf91e9bU, 0x3d4b38cb3e4749ddU,
  0x3eae8d193e17eec8U, 0xbe23c8733cf454caU, 0xbe23e2043d895817U, 0x3d118f7c3e287f74U,
  0xbdbef1293dc7a155U, 0x3e31f374be0e2fc7U, 0x3e5c8c0f3d674331U, 0x3dcd9b503e2c6d38U,
  0x3d6d4fc13e4a1f8cU, 0xbdd3690d3c0421f6U, 0xbda3ff77bd92aaa2U, 0x3e2629863d78c31cU,
  0x3e4c5a84bd7c6207U, 0xbd3cbbecbcf29d79U, 0xbeb4364dbdf2498fU, 0x3e4e65c33e154ae8U,
  0xbea6f2333d39f3dbU, 0x3db5aed8be8f2772U, 0x3e03e40abe0f1e3cU, 0x3df1c13cbe074f2dU,
  0x3dd4437f3c46e254U, 0x3dca9c3cbe8e2c28U, 0xbe9fc8063bfaee62U, 0xbdf92883bd44ec0fU,
  0x3d637a943d8dbea9U, 0xbe844117bd9a45d4U, 0x3de403a9be787abdU, 0x3e59de83be14336aU,
  0xbea4e0603e1d5474U, 0x3e154e943e455b57U, 0x3dff4b0abdaa5fa4U, 0x3dc34ac33c159ff9U,
  0xbe1079edbdf7973dU, 0x3e162b2bbe6d5177U, 0xbe1ad1df3e431e33U, 0x3d230943be314595U,
  0x3de95c0bbd9e8c3cU, 0x3d328cfcbec999d4U, 0x3d21b7c13c93b85bU, 0x3e536181bd7e8ce2U,
  0xbe219142be05db5aU, 0xbda928e7bdd55158U, 0x3d3fc4573e3f4395U, 0xbd28473bbcabfa5cU,
  0xbd02047cbcb1ec8fU, 0xbe1aae0a3e49db90U, 0x3d0b85dc3dece7ecU, 0xbcd83e55bebadf33U,
  0x3e1850bfbe988053U, 0x3e205dc7be4d7a99U, 0xbda6cd9e3ccc4428U, 0xbe6f57cd3e10c503U,
  0x3e715891be6fe17fU, 0x3da07d0ebe743677U, 0xbd693f3b3e16850cU, 0xbeb906ffbd88ec98U,
  0xbe5ea8c6bea88fddU, 0x3db1f9f13dcf3695U, 0xbe9749263e64ae04U, 0xbcee92543cace5b9U,
  0x3d90173bbeda5976U, 0xbd38defdbd18066dU, 0x3e9f285a3d460d60U, 0xbd3db8bcbd1c065bU,
  0x3e2a5f7e3e44623eU, 0xb8ede2ed3e09d42aU, 0xbd92ef96be6e752eU, 0x3de86e643c8da276U,
  0x3deadda13e147ab7U, 0xbca7c88a3d8ef50fU, 0x3e4c2c2d3d264793U, 0xbc9b732cbd68ee52U,
  0x3e21820abd6e9a21U, 0x3e49af7bbdcf8ed1U, 0x3d5ca0c0bddb7375U, 0xbdad8031bd8f6667U,
  0xbe1eab6b3d0b89e2U, 0xbe2fd4913c9122edU, 0xbc62ee48bdf997dfU, 0x3d80f6f83d9c6d50U,
  0x3dd417c0bc451805U, 0xbde08f38bd9ca1d3U, 0x3e5fd368beae1428U, 0xbdd28b203e3cac82U,
  0x3b3cbde73e4e86d3U, 0x3d7268a73e099b4dU, 0xbd28cd4d3e04db2dU, 0xbe14885b3deb3713U,
  0xbd8843a0be2dcdb8U, 0xbe3c4f80beba97fbU, 0x3e035e7ebec6c22bU, 0xbced1667bea78daeU,
  0x3e0ba8293e400c63U, 0x3d6b9449bdb98d62U, 0xbd540d973e0a16c0U, 0xbd269c403cc65032U,
  0xbd5f3ff23d2a4024U, 0xbd80f2383e0608dcU, 0x3c7789c4bde47f45U, 0x3e3febf0bbf2bc96U,
  0xbeac747bba314edbU, 0x3cf11ea13dc2fe41U, 0xbe6567113d9dc811U, 0x3ded09543e150b87U,
  0x3dc00dfb3e1226b2U, 0xbebb357ebe834afdU, 0xbdcc6039bd82b972U, 0xbd545591bccdf10fU,
  0xbe6dd2a53e2fa51fU, 0xbe271655bde00b15U, 0xbec666fbbdfc2873U, 0xbd9e33863e3141b4U,
  0xbe9f30b23e1e9537U, 0xbdff7b9c3d8f3d12U, 0xbb6c74253d9c4a1dU, 0x3df48ea8be12530bU,
  0xbdff318dbd14a7ebU, 0x3e0420d9be2a7b45U, 0xbe61666d3db472c2U, 0xbe0c3c573d6fa2ddU,
  0xbe140b5a3d8d0db1U, 0x3d1a99b1bdd28ef4U, 0x3e29a5133b7aaccbU, 0xbc4fbdf8bd534c77U,
  0xbe94c1cdbe04444dU, 0xbde804f83da1967aU, 0x3b3cb2b33da4d366U, 0xbd43cfa93d0f2e44U,
  0xbddce9f83b67890eU, 0x3da9f04ebe2147edU, 0x3c3c54b13bf5bc10U, 0x3d1e348ebc7c0c52U,
  0xbde6b4e23cd5a462U, 0x3c13043d3d40ac85U, 0x3db4265abdd3ae9dU, 0xbb7fc3623dce979aU,
  0x3dc0b1f33e7bb6a3U, 0x3dabd358be335eceU, 0x3dcd942abd919c6eU, 0x3d45ad68be225355U,
  0x3dc312eabd34df45U, 0x3dbc5833bdcc6313U, 0xbe45cef03d9d454dU, 0xbc93ced4be2d55dcU,
  0x3de011de3cb3a2eaU, 0xbd1a93d83e806be8U, 0xbca2d6c53e31efc0U, 0xbea7e5173e0a3f54U,
  0x3e86e072bd3167bdU, 0xbdd49b863bebd37fU, 0xbc953dc33e073099U, 0x3c8032f8be3a518aU,
  0x3d8cebd3bdb8e52cU, 0x3d4d40843e55ecffU, 0x3cb30f133ddff593U, 0xbb7fc9523e2b2113U,
  0x3d0ff4483c92102fU, 0xbd80b6adbd2fa485U, 0x3dbc15a73e03c644U, 0x3dc42a223e4e68cbU,
  0xbeac91753e0d4840U, 0xbd2e3b133c596532U, 0x3e3a004b3c47db1cU, 0x3ddd6d18bd94ed3fU,
  0x3bef07a53d4b052fU, 0x3dbc2eedbdc7ce40U, 0xbd6860e13e141ef6U, 0xbced8a723e50fdbbU,
  0xbbde0bbe3e1c731bU, 0xbe299ce7bdf9feafU, 0x3e2756d2be75ab10U, 0xbcc50bbfbee313daU,
  0xbe7e58103df801c6U, 0x3df123433c49eb9eU, 0x3db39b4cbd82d143U, 0x3de44fbabddd1badU,
  0xbe4a3cfebd9bb55eU, 0xbe23509dbe4effc6U, 0xbd963ae93db31384U, 0xbe033c8d3d6721dfU,
  0x3deec294bd5d110eU, 0x3bb3d261bec1ea03U, 0xbe03d51ebd4a14ffU, 0xbe42f419bd1c3014U,
  0xbe561d0abce2ff64U, 0x3d955029bdaa0727U, 0x3ca49d033c8753e1U, 0xbe2b8d7f3cc0efa7U,
  0xbd55221b3dfbbc48U, 0xbd126c3abe06a853U, 0x3e09cacfbe060bd5U, 0x3d29cf6cbe17657aU,
  0x3c14ad86beb46d48U, 0x3dae660f3ddaab23U, 0xbdfb0139bcb5445fU, 0xbe8007ef3e2fd7baU,
  0x3e273921bea5899bU, 0xbd64fb8b3d837b49U, 0xbdb0ae213d18211dU, 0xbe35e78cbda865f3U,
  0xbe3c0c84bea4cd5fU, 0x3cab49223d30f0deU, 0xbe6cc9c63e65dc70U, 0x3e1192b9bc9e961fU,
  0x3e7a42c7beafc93dU, 0x3ca3337a3e348b52U, 0x3e170a453df64560U, 0xbc2ff0ebbd181943U,
  0xbded9b853de4bedfU, 0xbcc327713e91815dU, 0x3cbe96a93dea03beU, 0xbdf36d933ce98078U,
  0x3d7c9dccbe1ada3bU, 0x3d9254493ea136f2U, 0xbdb3221fbe221851U, 0x3dcb2207be288562U,
  0xbd2c50a4be5d4aeeU, 0x3ea740b0bd06873fU, 0x3d7217ebbc27b833U, 0xbe00bda3be463feaU,
  0xbb57fc18bc81374cU, 0xbc68db03b82629afU, 0xbe1434cbbd992856U, 0xbe24190d3e54a435U,
  0x3daa004cbd35067eU, 0x3da900d73d74e611U, 0xbdc9cc7b3e271e89U, 0xbe19be4ebdf4f481U,
  0x3d7101c53ba839acU, 0xbd98da71bdba0279U, 0xbe09b5d13b4690e7U, 0xbdbc9cf1be4ecbf0U,
  0xbd91fbdfbe5b3495U, 0xbc217a9d3d38915fU, 0x3c8c59da3cf0b58cU, 0x3d426c6bbe903d2aU,
  0xbea5443e3e09fe5cU, 0x3d484bb93d3a2178U, 0x3e3d50283dcdd339U, 0x3c6d01453e23ed07U,
  0xbe6e2dbdbd8a6878U, 0xbc9e03f6bd487a95U, 0x3d5904d43db0512fU, 0xbdca2bb4bd8d8f1bU,
  0x3d694837bdc8ee2cU, 0x3da9e7b9bda1321bU, 0xbe84d328bd874592U, 0xbefa538b3d91cd20U,
  0xbc0f16f6be44f03aU, 0xbccce5c83d7f92e3U, 0x3e1c4c1bbd7873e8U, 0x3e0438fcbe0efd0cU,
  0xbe161f26bdd5a156U, 0x3e00a414bcb06b22U, 0x3e231d7e3e2be70cU, 0xbe64c35d3da12effU,
  0x3cd956e73db2fa4dU, 0x3dc83c013d8f7600U, 0xbce02e653a86aefdU, 0x3df1c7b73c2955a3U,
  0xbdd6395ebdf07579U, 0xbd45992d3de6b0f6U, 0xbdedb5663e0f4788U, 0xbd9d8328bd02e03eU,
  0xbe3ce565bc8e77ffU, 0xbe06f65ebc54ad6dU, 0xbe4b2f54be244942U, 0x3db7772c3d08bc89U,
  0x3d4d02363d72a9bdU, 0x3e3066533dfafe44U, 0x3dac17693deb54dfU, 0xbe1f7ca5be34129dU,
  0x3e41eb77bd55a8d9U, 0xbdabeef6bde838c1U, 0x3dc32ababd75eb7eU, 0xbcbf12423d02e385U,
  0x3d33b7b33dab2197U, 0x3dc8789ebe690590U, 0xbda21ef2bd233f84U, 0xbd1716733cf788beU,
  0x3dad1af6be2bf30bU, 0x3dacd5e7bc81f76dU, 0xbd89ae27be19d097U, 0x3decdc75be1430ebU,
  0xbcc93d4dbdab734dU, 0xbe2a8dee3e106e56U, 0xbe26de903d780e2fU, 0x3dcc7c56bbde0b30U,
  0x3d34696ebd9127bdU, 0xbd5a9a8ebde02357U, 0x3de4e6e03d54bb63U, 0xbd02bc753d3d39d0U,
  0x3e1a00ad3d8b5675U, 0xbdbdadd1be179304U, 0xbde44da1bdf90b68U, 0xbdacdba7bdd3422dU,
  0x3da20a613e483c8bU, 0xbe0b72733da90f7dU, 0xbc60049dbdb9c2f6U, 0xbe327e8dbe4905ddU,
  0xbd9a85febe37a5c5U, 0x3dfa8ab0bc1dcd46U, 0x3dac32fc3dff71f7U, 0xbdf490f4bd631691U,
  0xbd673f15bdc3607bU, 0x3dbcaa503c421325U, 0xbe0bf60abe35e618U, 0xbda3ffe23e09812dU,
  0x3d68aff9bd1aac7cU, 0xbd444234be548c36U, 0xbcae49e23e02355bU, 0xbe069fc73d3d468dU,
  0x3d58e90abbc7c3d0U, 0xbeb48282be84c36cU, 0x3d93217ebe81ab88U, 0xbd2c868abe46f41aU,
  0xbd20a2063e1bbb8eU, 0x3dc92ab33dc7b53cU, 0xbcdd2d2bbdc9a5dcU, 0x3de1088a3c6d46b9U,
  0x3ddf01ae3e1bf228U, 0xbd79b3a5be410b0eU, 0x3e150e6abdb3a53aU, 0x3cb365b83d45f900U,
  0xbd9cb7dcbdf9b30cU, 0x3e6d9b98bdc5b184U, 0xbdaeead6be15b840U, 0xbdfe7d043d895cd7U,
  0x3cce42853e7aa737U, 0xbe2c4e2dbe3c9d5aU, 0xbe4e8dc03d511493U, 0xbd273d133c5e2166U,
  0xbd93d09d3d2e02f1U, 0xbd425a10bddf212dU, 0xbd0ee2223e0dbe1dU, 0x3da1f9c3bcb88595U,
  0x3e40365a3b854394U, 0x3d7bbcd63de86848U, 0xbe5a1a3a3e8cdffdU, 0x3be18785ba1d973cU,
  0xbdc2aba3be59b1eaU, 0x3e0e14353e219f14U, 0xbdb54a64bdde0902U, 0x3e9a6c15be09c0c4U,
  0xbe65316c3d8e6563U, 0xbdb2d4713e9e9c96U, 0xbe39bc513da5594cU, 0xbd6751253e6b9c20U,
  0x3e983334bdaf38d7U, 0x3e2f3bb53d887d0cU, 0xbdab776bbd522037U, 0x3d1e30693cd113d5U,
  0xbe2ead50be04cd0aU, 0x3e31e5babe4a6855U, 0xbdba5fe6bcf801b4U, 0xbd12de0ebcf78570U,
  0x3e1d8834be2c0a9bU, 0x3e04e81dbd2ee5a6U, 0xbdc9b230bdc154eeU, 0x3cac1ca2bd85d219U,
  0xbcbc6626bdbb54c8U, 0xbe9f69593e26356bU, 0xbdd2a20e3e03b70cU, 0xbe2788c5be5f4291U,
  0x3de01b9bbe6fb3d7U, 0x3dcddf0d3d1be8f3U, 0x3d8159cd3de47306U, 0x3d47e42bbcd36a83U,
  0xbe4e0324bd2d19daU, 0x3df837213dab6ec2U, 0xbdb30eb9be2baf6aU, 0xbe14b9373cf960fcU,
  0xbe33346dbcbbd5e8U, 0x3df0a28f3c150dc9U, 0xbe82433fbdcbdf81U, 0xbe2b9c49bd96bf9aU,
  0xbe4ff361bdd1bbbaU, 0x3da9dc203c8e61e0U, 0xbdf2f5463d4d2de9U, 0xbe1417673d213c40U,
  0x3cb5038cbdbbc785U, 0x3e09e469bd888eb4U, 0x3be03bf0be1aec7bU, 0xbd41f478be248d77U,
  0xbd072f63bde5161eU, 0x3db234d4be6bf356U, 0xbd4c4577be48980dU, 0x3da25dad3967a7f2U,
  0x3e163b6b3ddf0f0aU, 0xbdf5985f3d72fee8U, 0x3e367a75be13e28fU, 0xbcd4536fbc8b9b2fU,
  0xbcf344003ce65337U, 0x3e1bc1ba3e010170U, 0x3d0d5a233e2526faU, 0x3d1bc0613d1c7bf7U,
  0xbd850d4e3d61e5b4U, 0xbe234d2fbe2dbaadU, 0x3e094be6bc51e115U, 0xbe5284a3bc663ab3U,
  0xbe02ee36be434e38U, 0x3dadeb92bde8f27fU, 0x3db1e3d43bdd04b0U, 0xbe554683bdc92d6fU,
  0x3c42a9483ddcd66eU, 0x3df638ad3e849f30U, 0xbdcbe29d3d73ecd9U, 0x3da838a5bd0e26cdU,
  0xbc14579e3e325722U, 0x3cf2f1a23c135f26U, 0xbe19741e3a951c33U, 0x3e2867f7bc2490b8U,
  0xbe58de5a3da65fe9U, 0x3d6048b0bd9add08U, 0x3e238bd7bd01ced0U, 0x3e3af25b3dd304b8U,
  0x3dee893b3e287689U, 0xbcf64d04bd9666baU, 0x3d18b792bdf55e5dU, 0x3e10b1073cb5fa46U,
  0xbd88cf7c3c88c666U, 0x3d6ba1cf3d842518U, 0xbe2c91093deb5846U, 0x3de580bdbca81396U,
  0x3e1fa57c3e22b69fU, 0xbe1de7d5beb10844U, 0xbd3f4bd6bdfdbc7eU, 0xbd531f333a82f4f8U,
  0x3c4f34963cdb31d6U, 0x3e16760fbe092a56U, 0xbe798fd7bd361f1cU, 0xbd07faefbe337771U,
  0xbd543b103d891d26U, 0x3e22abcbbdb3598fU, 0xbe6ca0593d766a70U, 0xbe486c72be031421U,
  0x3e9c4d0abe43a2d9U, 0xbe43be7bbcd14f4dU, 0xbdb94f2ebd682c17U, 0x3e111cbabd43815aU,
  0xbe84a9e9be78f67aU, 0x3d91e124bdc55b3fU, 0xbc9644b23e01a37aU, 0xbe1c5c663e73d2c0U,
  0xbe8dfd73be2733f8U, 0x3df9c52ebd01f19bU, 0xbd9faeae3e1f9364U, 0xbe3cda8bba80bac4U,
  0xbc25fcf83d83fcdaU, 0x3cd4017cbd2ec1b4U, 0xbcee84c93d464deaU, 0x3d23257cbcef4aadU,
  0xbd33d0373cc58ed7U, 0xbd61cad5bd18028bU, 0x3d4670613c904098U, 0x3d618f7cbd164431U,
  0x3d99f1a4bc413c8fU, 0x3daf6850bd8a49dfU, 0xbcdedf86bb94c866U, 0x3dabcf17bddb8e5cU,
  0xbd4997f0bd62997dU, 0xbcd97a2f3d07ae67U, 0x3cd14a10bd7597d2U, 0xbd090967bda5f104U,
  0x3e72883d3e13c446U, 0x3e390f12bdb25f9dU, 0xbd0e319d3e2ad736U, 0xbd49d9d7bdae1d23U,
  0xbd3805c0bddea360U, 0xbd4871103da423fcU, 0x3e6e13d53e47d2d7U, 0xbe448514bd1ad663U,
  0x3da01c6dbd473557U, 0x3d84d12cbd2a1817U, 0xbd326dbc3e13d22cU, 0xbe10df00bd5d06a7U,
